<pad>	0
<unk>	0
<bos>	0
<eos>	0
▁t	-0
▁a	-1
in	-2
he	-3
re	-4
on	-5
er	-6
▁the	-7
at	-8
▁s	-9
▁c	-10
or	-11
nd	-12
is	-13
es	-14
ou	-15
an	-16
en	-17
it	-18
▁p	-19
▁w	-20
▁o	-21
ing	-22
▁to	-23
al	-24
▁f	-25
▁and	-26
▁m	-27
▁in	-28
ion	-29
▁b	-30
le	-31
▁d	-32
ic	-33
▁of	-34
ed	-35
ro	-36
ar	-37
ct	-38
us	-39
▁th	-40
ent	-41
▁I	-42
▁y	-43
▁re	-44
▁is	-45
as	-46
▁e	-47
▁you	-48
▁n	-49
om	-50
▁h	-51
ve	-52
et	-53
▁l	-54
▁T	-55
ll	-56
im	-57
▁A	-58
id	-59
ation	-60
▁pro	-61
ow	-62
ot	-63
st	-64
▁that	-65
▁be	-66
▁g	-67
▁for	-68
am	-69
▁an	-70
ce	-71
ch	-72
ly	-73
ut	-74
ant	-75
▁as	-76
ist	-77
if	-78
od	-79
▁or	-80
ate	-81
▁U	-82
ay	-83
▁on	-84
▁con	-85
ith	-86
▁us	-87
▁st	-88
▁can	-89
ol	-90
▁it	-91
ig	-92
ge	-93
ser	-94
▁with	-95
el	-96
ur	-97
ers	-98
▁The	-99
ul	-100
pe	-101
il	-102
ra	-103
▁are	-104
qu	-105
▁com	-106
▁User	-107
ss	-108
um	-109
▁v	-110
▁ex	-111
un	-112
se	-113
▁"	-114
▁he	-115
est	-116
▁S	-117
ess	-118
ir	-119
▁C	-120
ab	-121
ment	-122
ke	-123
▁1	-124
▁ha	-125
ction	-126
▁wh	-127
▁su	-128
ri	-129
ver	-130
ort	-131
▁de	-132
ity	-133
▁`	-134
ure	-135
▁im	-136
pp	-137
ive	-138
her	-139
ld	-140
out	-141
▁your	-142
▁H	-143
em	-144
age	-145
nt	-146
▁not	-147
▁ne	-148
ple	-149
pt	-150
ad	-151
ore	-152
th	-153
ust	-154
ical	-155
ide	-156
▁P	-157
▁se	-158
▁2	-159
istant	-160
ill	-161
oc	-162
▁r	-163
▁have	-164
ain	-165
ere	-166
ould	-167
▁int	-168
iv	-169
▁W	-170
orm	-171
ies	-172
▁(	-173
▁Ass	-174
ac	-175
▁me	-176
iz	-177
pl	-178
du	-179
▁Assistant	-180
ect	-181
▁=	-182
▁imp	-183
ud	-184
ine	-185
▁le	-186
ial	-187
igh	-188
▁ch	-189
▁ab	-190
▁al	-191
▁res	-192
per	-193
form	-194
▁en	-195
rom	-196
▁we	-197
▁te	-198
▁D	-199
and	-200
ions	-201
ther	-202
▁sh	-203
▁by	-204
ame	-205
able	-206
our	-207
▁wor	-208
▁cont	-209
▁qu	-210
▁Th	-211
▁comp	-212
▁inc	-213
art	-214
▁do	-215
▁M	-216
xt	-217
▁u	-218
▁mod	-219
▁F	-220
00	-221
op	-222
cess	-223
▁from	-224
▁ma	-225
▁B	-226
act	-227
▁this	-228
ry	-229
ata	-230
▁will	-231
▁3	-232
ang	-233
og	-234
▁It	-235
ase	-236
os	-237
▁prov	-238
▁ad	-239
ter	-240
lp	-241
▁use	-242
ile	-243
▁any	-244
ations	-245
are	-246
ome	-247
all	-248
▁O	-249
▁pl	-250
ult	-251
▁This	-252
▁Y	-253
▁help	-254
▁other	-255
▁spe	-256
▁*	-257
ue	-258
▁E	-259
▁R	-260
ight	-261
▁my	-262
ire	-263
▁ac	-264
▁k	-265
▁pre	-266
▁sy	-267
▁In	-268
ich	-269
ib	-270
▁L	-271
▁produ	-272
▁import	-273
▁used	-274
ag	-275
ific	-276
ence	-277
▁at	-278
▁``	-279
▁-	-280
▁if	-281
▁model	-282
▁app	-283
▁fe	-284
so	-285
ance	-286
▁G	-287
▁more	-288
ff	-289
king	-290
llow	-291
lud	-292
ated	-293
▁N	-294
▁cl	-295
▁such	-296
rou	-297
▁data	-298
▁which	-299
sw	-300
ind	-301
▁their	-302
▁man	-303
put	-304
ru	-305
ans	-306
vel	-307
ign	-308
▁5	-309
▁may	-310
▁4	-311
▁includ	-312
ice	-313
▁spec	-314
ard	-315
ces	-316
▁```	-317
▁ind	-318
ous	-319
ite	-320
▁whe	-321
ep	-322
int	-323
ks	-324
▁also	-325
stem	-326
▁has	-327
▁comm	-328
▁fo	-329
ime	-330
▁li	-331
ual	-332
▁but	-333
ition	-334
▁go	-335
▁che	-336
▁about	-337
▁des	-338
▁inform	-339
▁tra	-340
▁need	-341
▁ass	-342
ber	-343
▁am	-344
pon	-345
▁out	-346
ode	-347
eth	-348
▁sc	-349
▁un	-350
ip	-351
▁cre	-352
ach	-353
ary	-354
swer	-355
ie	-356
▁per	-357
▁j	-358
▁po	-359
ari	-360
ener	-361
ased	-362
now	-363
▁You	-364
▁important	-365
iff	-366
nder	-367
▁fun	-368
▁system	-369
▁ar	-370
ace	-371
▁exam	-372
▁like	-373
▁#	-374
▁information	-375
ject	-376
▁quest	-377
▁num	-378
ount	-379
▁its	-380
angu	-381
ize	-382
one	-383
ast	-384
▁using	-385
▁diff	-386
▁provide	-387
▁lo	-388
▁How	-389
ack	-390
ful	-391
ass	-392
▁answer	-393
▁so	-394
▁langu	-395
▁dis	-396
▁would	-397
ility	-398
▁val	-399
▁know	-400
ens	-401
▁'	-402
▁function	-403
gh	-404
--	-405
ating	-406
▁what	-407
▁mo	-408
ress	-409
▁they	-410
mical	-411
▁tr	-412
ents	-413
ong	-414
▁some	-415
▁language	-416
▁ser	-417
te	-418
ory	-419
▁Wh	-420
▁product	-421
▁how	-422
▁co	-423
ap	-424
▁gener	-425
ds	-426
lic	-427
▁If	-428
▁text	-429
ange	-430
▁cons	-431
▁vari	-432
▁all	-433
▁respon	-434
▁ta	-435
▁pr	-436
▁was	-437
▁{	-438
ors	-439
▁ty	-440
▁1.	-441
()	-442
▁up	-443
▁code	-444
▁pers	-445
▁process	-446
▁make	-447
▁new	-448
▁0	-449
▁AI	-450
▁add	-451
▁ro	-452
▁there	-453
▁under	-454
etw	-455
▁ev	-456
▁em	-457
▁requ	-458
▁specific	-459
ments	-460
ities	-461
ell	-462
▁follow	-463
gr	-464
▁should	-465
▁time	-466
▁str	-467
cur	-468
▁[	-469
▁chemical	-470
▁|	-471
▁example	-472
erm	-473
av	-474
",	-475
ning	-476
yth	-477
▁rel	-478
▁differe	-479
ater	-480
ose	-481
ound	-482
led	-483
▁inst	-484
▁comple	-485
▁inv	-486
elf	-487
ail	-488
pect	-489
▁2.	-490
ne	-491
velop	-492
any	-493
con	-494
cri	-495
ctions	-496
aus	-497
▁part	-498
lease	-499
▁person	-500
ient	-501
▁ph	-502
▁Here	-503
olog	-504
▁them	-505
▁way	-506
ible	-507
ative	-508
▁6	-509
▁eff	-510
▁one	-511
ings	-512
▁exper	-513
▁based	-514
▁3.	-515
▁inter	-516
▁over	-517
ython	-518
urn	-519
▁could	-520
end	-521
ics	-522
ally	-523
▁number	-524
ates	-525
▁form	-526
bject	-527
▁<	-528
▁including	-529
▁when	-530
▁col	-531
▁As	-532
▁develop	-533
com	-534
▁det	-535
ord	-536
▁want	-537
▁ke	-538
stand	-539
ys	-540
▁provid	-541
ety	-542
":	-543
ption	-544
ild	-545
lect	-546
ices	-547
▁set	-548
▁ret	-549
chn	-550
▁into	-551
ft	-552
get	-553
▁different	-554
▁train	-555
ck	-556
▁}	-557
ustom	-558
▁company	-559
ph	-560
ature	-561
▁feel	-562
ub	-563
rite	-564
ear	-565
▁than	-566
▁only	-567
ree	-568
ever	-569
▁act	-570
▁each	-571
les	-572
▁pe	-573
ict	-574
lo	-575
▁4.	-576
tain	-577
▁questions	-578
▁What	-579
arm	-580
res	-581
pport	-582
ify	-583
▁rep	-584
ract	-585
▁understand	-586
ark	-587
▁sp	-588
▁sa	-589
ia	-590
enc	-591
▁V	-592
▁St	-593
▁work	-594
▁serv	-595
▁high	-596
ality	-597
ential	-598
▁create	-599
▁trans	-600
ues	-601
▁require	-602
ok	-603
gram	-604
alth	-605
▁bu	-606
ath	-607
▁ra	-608
▁ag	-609
▁techn	-610
▁/	-611
▁these	-612
▁off	-613
▁list	-614
▁custom	-615
▁However	-616
▁sol	-617
ower	-618
▁then	-619
▁lear	-620
▁reg	-621
▁sent	-622
ays	-623
▁been	-624
▁indust	-625
row	-626
▁hum	-627
pend	-628
▁following	-629
▁who	-630
arch	-631
▁7	-632
hes	-633
▁user	-634
▁products	-635
▁appro	-636
."	-637
▁def	-638
▁tw	-639
▁+	-640
▁her	-641
▁file	-642
▁allow	-643
ience	-644
▁program	-645
ause	-646
ns	-647
een	-648
▁well	-649
▁cor	-650
▁meth	-651
▁design	-652
▁8	-653
▁result	-654
▁10	-655
rough	-656
ular	-657
▁range	-658
etween	-659
ople	-660
▁sim	-661
irst	-662
ef	-663
▁between	-664
▁expl	-665
ise	-666
▁no	-667
als	-668
ext	-669
',	-670
ious	-671
▁rem	-672
▁tas	-673
▁i	-674
▁perform	-675
red	-676
▁Ch	-677
▁get	-678
oy	-679
▁best	-680
▁value	-681
▁health	-682
▁cur	-683
▁return	-684
reat	-685
ak	-686
▁5.	-687
▁people	-688
▁input	-689
▁To	-690
▁cal	-691
▁method	-692
ish	-693
▁loc	-694
▁ens	-695
▁words	-696
low	-697
anc	-698
▁20	-699
▁through	-700
▁exp	-701
▁two	-702
rit	-703
▁dec	-704
▁prom	-705
round	-706
▁sm	-707
der	-708
▁att	-709
▁applic	-710
▁step	-711
oth	-712
▁find	-713
ware	-714
▁J	-715
▁impro	-716
ery	-717
rent	-718
▁same	-719
pen	-720
ages	-721
own	-722
);	-723
▁start	-724
▁char	-725
▁ref	-726
▁question	-727
▁For	-728
▁pot	-729
▁play	-730
its	-731
▁say	-732
dition	-733
▁av	-734
ural	-735
ident	-736
▁rec	-737
ving	-738
▁bl	-739
▁don	-740
▁typ	-741
ution	-742
▁just	-743
▁being	-744
▁poss	-745
ically	-746
▁respons	-747
▁let	-748
gan	-749
▁our	-750
▁fin	-751
ves	-752
▁must	-753
▁many	-754
ting	-755
ability	-756
iron	-757
▁object	-758
ied	-759
▁invol	-760
ines	-761
▁proper	-762
ex	-763
ble	-764
▁type	-765
▁support	-766
▁output	-767
▁sk	-768
ences	-769
iness	-770
▁fact	-771
▁first	-772
ized	-773
▁Ad	-774
ivid	-775
▁where	-776
ner	-777
▁most	-778
gg	-779
vers	-780
▁hand	-781
▁descri	-782
iew	-783
ock	-784
▁while	-785
uring	-786
▁print	-787
▁effect	-788
viron	-789
▁class	-790
▁here	-791
ick	-792
▁potential	-793
▁Con	-794
▁conf	-795
▁mat	-796
gy	-797
iqu	-798
ization	-799
▁An	-800
▁see	-801
▁conc	-802
ork	-803
▁lead	-804
ten	-805
▁ensure	-806
▁9	-807
ruct	-808
ty	-809
▁sub	-810
▁eng	-811
▁equ	-812
▁state	-813
ull	-814
iss	-815
▁access	-816
▁production	-817
▁key	-818
▁lar	-819
▁som	-820
▁bec	-821
▁saf	-822
fore	-823
▁good	-824
▁include	-825
▁bo	-826
▁sign	-827
hip	-828
▁x	-829
ider	-830
),	-831
io	-832
▁industry	-833
▁pos	-834
1,	-835
rect	-836
▁Re	-837
▁depend	-838
ness	-839
▁anal	-840
ough	-841
▁med	-842
ources	-843
itive	-844
▁take	-845
ake	-846
ng	-847
▁environ	-848
▁top	-849
wn	-850
▁art	-851
▁pur	-852
yl	-853
eng	-854
▁soc	-855
----	-856
▁ap	-857
▁Pro	-858
▁$	-859
ink	-860
▁There	-861
▁does	-862
▁assist	-863
▁wide	-864
▁pat	-865
be	-866
ividual	-867
▁main	-868
▁adv	-869
▁test	-870
rol	-871
▁rese	-872
ody	-873
ved	-874
..	-875
▁possible	-876
ething	-877
▁name	-878
▁el	-879
▁individual	-880
▁tool	-881
usiness	-882
▁human	-883
▁disc	-884
ional	-885
▁commun	-886
000	-887
▁gu	-888
iel	-889
▁something	-890
▁par	-891
ms	-892
▁try	-893
ove	-894
▁world	-895
rib	-896
▁prof	-897
\_	-898
▁ent	-899
▁assistant	-900
hen	-901
▁count	-902
▁Please	-903
ife	-904
▁generate	-905
▁environment	-906
▁const	-907
▁Q	-908
▁We	-909
▁stud	-910
nce	-911
▁K	-912
arket	-913
).	-914
ps	-915
▁improve	-916
▁aut	-917
▁charact	-918
▁various	-919
▁current	-920
▁able	-921
▁fl	-922
▁opt	-923
▁oper	-924
ples	-925
▁inf	-926
▁cho	-927
__	-928
▁web	-929
py	-930
old	-931
pri	-932
▁learning	-933
▁fil	-934
▁command	-935
▁year	-936
▁run	-937
self	-938
iven	-939
▁ident	-940
ology	-941
aterial	-942
very	-943
ec	-944
▁power	-945
other	-946
▁acc	-947
▁prev	-948
▁back	-949
▁build	-950
</	-951
ocus	-952
ense	-953
▁instru	-954
cept	-955
day	-956
bers	-957
▁content	-958
ures	-959
ote	-960
▁cap	-961
ts	-962
bo	-963
line	-964
ello	-965
ument	-966
▁They	-967
▁personal	-968
▁business	-969
▁ability	-970
irect	-971
ute	-972
▁dat	-973
▁context	-974
ited	-975
▁incre	-976
▁organ	-977
▁dist	-978
▁own	-979
cul	-980
):	-981
no	-982
▁please	-983
("	-984
ring	-985
▁plan	-986
▁she	-987
▁game	-988
▁development	-989
▁give	-990
li	-991
priate	-992
▁term	-993
▁image	-994
ards	-995
▁beh	-996
▁long	-997
▁open	-998
hed	-999
▁redu	-1000
▁ele	-1001
▁response	-1002
▁self	-1003
▁ext	-1004
ertain	-1005
▁point	-1006
▁iss	-1007
▁respect	-1008
ives	-1009
▁ris	-1010
▁car	-1011
▁right	-1012
ways	-1013
▁Python	-1014
▁food	-1015
▁contain	-1016
▁sum	-1017
▁material	-1018
▁market	-1019
▁were	-1020
ob	-1021
▁Ex	-1022
▁focus	-1023
ilities	-1024
▁6.	-1025
0,	-1026
ases	-1027
▁min	-1028
▁correct	-1029
not	-1030
▁control	-1031
ency	-1032
▁ins	-1033
orry	-1034
▁read	-1035
ale	-1036
▁others	-1037
▁accur	-1038
▁ide	-1039
▁pres	-1040
▁consider	-1041
uc	-1042
kes	-1043
▁activ	-1044
▁training	-1045
▁mult	-1046
▁contin	-1047
▁without	-1048
raph	-1049
up	-1050
erest	-1051
ost	-1052
▁comput	-1053
▁project	-1054
de	-1055
ention	-1056
ER	-1057
▁la	-1058
▁both	-1059
▁addition	-1060
PT	-1061
▁systems	-1062
▁large	-1063
▁end	-1064
read	-1065
▁needs	-1066
▁sorry	-1067
gor	-1068
▁write	-1069
▁care	-1070
▁mean	-1071
▁soft	-1072
▁Sure	-1073
▁ask	-1074
▁cle	-1075
▁\	-1076
ade	-1077
action	-1078
▁body	-1079
ron	-1080
fter	-1081
to	-1082
▁happ	-1083
▁partic	-1084
ified	-1085
▁manage	-1086
▁netw	-1087
comm	-1088
▁complex	-1089
▁Can	-1090
▁experience	-1091
▁research	-1092
avi	-1093
▁dev	-1094
▁These	-1095
▁level	-1096
rain	-1097
▁mem	-1098
ix	-1099
▁bel	-1100
▁proble	-1101
▁ener	-1102
▁note	-1103
▁life	-1104
ted	-1105
▁//	-1106
="	-1107
err	-1108
20	-1109
▁tasks	-1110
▁always	-1111
ream	-1112
ational	-1113
==	-1114
ray	-1115
▁Is	-1116
▁est	-1117
imate	-1118
▁sur	-1119
▁hy	-1120
▁pol	-1121
▁grou	-1122
ian	-1123
▁avail	-1124
▁instructions	-1125
pro	-1126
▁mon	-1127
▁variety	-1128
▁down	-1129
▁stand	-1130
▁values	-1131
▁energy	-1132
▁interest	-1133
ield	-1134
▁impact	-1135
▁feature	-1136
▁pri	-1137
riend	-1138
▁synt	-1139
▁determ	-1140
▁performance	-1141
▁bre	-1142
▁mess	-1143
oid	-1144
val	-1145
-1	-1146
name	-1147
▁sure	-1148
▁bet	-1149
inal	-1150
plement	-1151
ource	-1152
play	-1153
▁quality	-1154
▁team	-1155
▁models	-1156
ator	-1157
▁common	-1158
▁string	-1159
▁line	-1160
rame	-1161
ries	-1162
▁services	-1163
ily	-1164
▁vis	-1165
ather	-1166
▁applications	-1167
▁mach	-1168
ploy	-1169
usion	-1170
▁repres	-1171
▁harm	-1172
▁sentence	-1173
icult	-1174
▁Hello	-1175
▁grow	-1176
ication	-1177
▁water	-1178
▁phys	-1179
▁before	-1180
▁relations	-1181
2,	-1182
▁again	-1183
ets	-1184
▁amount	-1185
▁direct	-1186
▁small	-1187
uss	-1188
▁character	-1189
▁social	-1190
ique	-1191
ivers	-1192
pos	-1193
▁real	-1194
▁customer	-1195
▁Com	-1196
▁designed	-1197
▁service	-1198
▁ob	-1199
▁Addition	-1200
▁even	-1201
▁sever	-1202
▁0.	-1203
▁request	-1204
▁appropriate	-1205
▁Yes	-1206
▁word	-1207
ieve	-1208
▁di	-1209
ination	-1210
▁profess	-1211
▁else	-1212
▁because	-1213
▁relationship	-1214
cl	-1215
ON	-1216
ric	-1217
2.	-1218
▁doc	-1219
▁lim	-1220
▁steps	-1221
▁behavi	-1222
ax	-1223
▁Additionally	-1224
▁available	-1225
▁chang	-1226
▁ed	-1227
▁making	-1228
▁:	-1229
▁prot	-1230
ave	-1231
▁Use	-1232
▁trained	-1233
▁complete	-1234
▁responses	-1235
ledge	-1236
▁prompt	-1237
tern	-1238
ibr	-1239
sc	-1240
▁better	-1241
▁experi	-1242
lor	-1243
dit	-1244
▁users	-1245
▁eas	-1246
],	-1247
ank	-1248
thing	-1249
▁several	-1250
▁ve	-1251
▁sex	-1252
▁factors	-1253
par	-1254
▁often	-1255
▁repe	-1256
ced	-1257
atural	-1258
▁Un	-1259
view	-1260
▁order	-1261
▁format	-1262
1.	-1263
▁cost	-1264
▁anything	-1265
▁size	-1266
▁My	-1267
▁implement	-1268
ggest	-1269
ren	-1270
▁invest	-1271
▁cannot	-1272
curity	-1273
▁show	-1274
▁Over	-1275
▁software	-1276
()`	-1277
▁vers	-1278
▁effic	-1279
▁pop	-1280
▁tem	-1281
▁sit	-1282
▁colum	-1283
▁involves	-1284
air	-1285
▁7.	-1286
▁given	-1287
ci	-1288
▁Write	-1289
▁met	-1290
ead	-1291
ger	-1292
▁multi	-1293
ember	-1294
sh	-1295
apt	-1296
▁today	-1297
ames	-1298
▁his	-1299
▁task	-1300
ern	-1301
ule	-1302
date	-1303
▁might	-1304
ructure	-1305
▁every	-1306
gorith	-1307
▁strong	-1308
rid	-1309
▁calcul	-1310
duct	-1311
ton	-1312
ital	-1313
▁examples	-1314
▁day	-1315
ood	-1316
▁rele	-1317
")	-1318
nect	-1319
▁suggest	-1320
▁enc	-1321
ason	-1322
▁ben	-1323
▁known	-1324
ope	-1325
▁had	-1326
gal	-1327
uch	-1328
▁machine	-1329
5,	-1330
gs	-1331
▁summ	-1332
▁Do	-1333
▁necess	-1334
▁helpful	-1335
▁resources	-1336
▁made	-1337
dict	-1338
ven	-1339
▁Che	-1340
ined	-1341
▁meas	-1342
▁accurate	-1343
▁typically	-1344
▁learn	-1345
▁now	-1346
mit	-1347
▁found	-1348
▁Int	-1349
▁provided	-1350
ills	-1351
▁programm	-1352
▁decis	-1353
els	-1354
▁change	-1355
port	-1356
▁algorith	-1357
reate	-1358
▁store	-1359
▁signific	-1360
ually	-1361
▁few	-1362
▁address	-1363
▁err	-1364
▁effective	-1365
".	-1366
▁So	-1367
▁knowledge	-1368
▁certain	-1369
tion	-1370
▁del	-1371
▁.	-1372
▁Let	-1373
▁express	-1374
▁allows	-1375
oking	-1376
▁He	-1377
ism	-1378
▁pass	-1379
▁pract	-1380
▁safety	-1381
▁uses	-1382
▁means	-1383
IN	-1384
▁understanding	-1385
23	-1386
▁keep	-1387
ash	-1388
▁convers	-1389
▁log	-1390
lish	-1391
▁around	-1392
▁inte	-1393
▁cause	-1394
icle	-1395
amet	-1396
ript	-1397
▁writ	-1398
▁numbers	-1399
▁suc	-1400
▁network	-1401
0.	-1402
▁wom	-1403
indow	-1404
('	-1405
gin	-1406
▁secon	-1407
▁difficult	-1408
▁natural	-1409
aging	-1410
▁script	-1411
▁providing	-1412
▁behavior	-1413
bot	-1414
▁tell	-1415
))	-1416
▁case	-1417
▁chall	-1418
ublic	-1419
ants	-1420
▁identify	-1421
az	-1422
▁compound	-1423
ling	-1424
acy	-1425
ding	-1426
▁table	-1427
▁individuals	-1428
ysis	-1429
▁after	-1430
▁ach	-1431
▁eth	-1432
▁customers	-1433
utions	-1434
vant	-1435
str	-1436
▁commit	-1437
▁move	-1438
▁general	-1439
lu	-1440
python	-1441
ulation	-1442
▁webs	-1443
▁significant	-1444
▁free	-1445
▁mind	-1446
▁light	-1447
▁check	-1448
td	-1449
app	-1450
▁physical	-1451
▁python	-1452
▁still	-1453
less	-1454
▁sens	-1455
▁elect	-1456
pr	-1457
▁technology	-1458
atform	-1459
ered	-1460
ium	-1461
▁special	-1462
▁years	-1463
reen	-1464
▁role	-1465
PI	-1466
▁features	-1467
ateg	-1468
▁dem	-1469
▁analy	-1470
▁rate	-1471
▁think	-1472
▁field	-1473
ars	-1474
▁chat	-1475
▁sing	-1476
▁next	-1477
▁When	-1478
▁Overall	-1479
▁intern	-1480
commend	-1481
▁dri	-1482
-2	-1483
▁treat	-1484
▁represent	-1485
The	-1486
▁neg	-1487
ification	-1488
▁emot	-1489
▁lab	-1490
▁within	-1491
fact	-1492
▁sw	-1493
▁much	-1494
▁libr	-1495
▁fam	-1496
▁meet	-1497
cript	-1498
arget	-1499
▁types	-1500
▁caus	-1501
▁message	-1502
▁50	-1503
▁cat	-1504
▁aff	-1505
▁account	-1506
▁risk	-1507
new	-1508
uation	-1509
ancial	-1510
▁positive	-1511
▁Some	-1512
ering	-1513
▁materials	-1514
AN	-1515
▁short	-1516
dro	-1517
▁unique	-1518
▁send	-1519
ST	-1520
><	-1521
▁search	-1522
▁group	-1523
▁someone	-1524
pose	-1525
▁called	-1526
▁recommend	-1527
▁management	-1528
▁fut	-1529
▁cult	-1530
▁document	-1531
▁De	-1532
und	-1533
ables	-1534
ilar	-1535
▁completion	-1536
▁100	-1537
▁provides	-1538
▁option	-1539
ample	-1540
▁No	-1541
ogn	-1542
mat	-1543
▁requirements	-1544
oint	-1545
▁comb	-1546
▁necessary	-1547
AT	-1548
imes	-1549
▁place	-1550
▁friend	-1551
▁tre	-1552
▁sentences	-1553
text	-1554
set	-1555
▁safe	-1556
▁includes	-1557
▁professional	-1558
▁item	-1559
ws	-1560
▁skills	-1561
▁date	-1562
▁platform	-1563
div	-1564
▁application	-1565
▁п	-1566
10	-1567
▁below	-1568
▁call	-1569
▁tools	-1570
▁exist	-1571
ared	-1572
▁hig	-1573
ene	-1574
▁security	-1575
,"	-1576
ert	-1577
▁options	-1578
sp	-1579
itor	-1580
▁clear	-1581
alk	-1582
▁sense	-1583
▁color	-1584
ully	-1585
▁related	-1586
▁vide	-1587
▁Se	-1588
▁benef	-1589
nces	-1590
cial	-1591
urther	-1592
▁things	-1593
aut	-1594
▁arg	-1595
▁reason	-1596
▁Inst	-1597
3,	-1598
ustain	-1599
▁guid	-1600
▁Co	-1601
▁during	-1602
▁results	-1603
co	-1604
▁success	-1605
hesis	-1606
▁non	-1607
▁aud	-1608
▁hist	-1609
▁issues	-1610
▁desire	-1611
▁approach	-1612
▁another	-1613
ier	-1614
▁analysis	-1615
▁acid	-1616
▁8.	-1617
':	-1618
▁computer	-1619
▁mus	-1620
ram	-1621
St	-1622
▁previous	-1623
▁Create	-1624
ances	-1625
▁19	-1626
▁select	-1627
▁very	-1628
rim	-1629
▁sl	-1630
icate	-1631
▁ways	-1632
▁goals	-1633
vern	-1634
▁public	-1635
irl	-1636
▁fac	-1637
ients	-1638
▁future	-1639
▁second	-1640
▁financial	-1641
▁reduce	-1642
▁single	-1643
actions	-1644
▁determine	-1645
ward	-1646
▁those	-1647
▁compon	-1648
perature	-1649
iate	-1650
tle	-1651
conom	-1652
▁problem	-1653
▁building	-1654
▁great	-1655
▁stat	-1656
▁simple	-1657
▁predict	-1658
▁ear	-1659
▁challeng	-1660
▁happy	-1661
▁в	-1662
irc	-1663
tt	-1664
4,	-1665
▁Im	-1666
▁Sh	-1667
▁bas	-1668
▁rece	-1669
▁discuss	-1670
rand	-1671
▁depending	-1672
▁working	-1673
▁sal	-1674
▁love	-1675
ince	-1676
▁One	-1677
path	-1678
rodu	-1679
')	-1680
▁array	-1681
▁space	-1682
▁changes	-1683
▁z	-1684
▁bi	-1685
ellig	-1686
ID	-1687
cho	-1688
▁Your	-1689
ditions	-1690
▁hard	-1691
▁paramet	-1692
▁eval	-1693
LM	-1694
▁did	-1695
▁relevant	-1696
vert	-1697
▁multiple	-1698
ystem	-1699
ral	-1700
ength	-1701
ont	-1702
▁1,	-1703
ina	-1704
▁sources	-1705
▁By	-1706
▁though	-1707
▁helps	-1708
▁sustain	-1709
▁likely	-1710
yle	-1711
▁column	-1712
here	-1713
▁Al	-1714
▁Tr	-1715
▁connect	-1716
istic	-1717
cing	-1718
▁hope	-1719
.,	-1720
▁protect	-1721
ret	-1722
xy	-1723
ken	-1724
▁engine	-1725
▁target	-1726
▁above	-1727
▁chemicals	-1728
▁cell	-1729
▁thing	-1730
odel	-1731
gether	-1732
▁together	-1733
▁optim	-1734
▁pay	-1735
3.	-1736
▁version	-1737
face	-1738
ails	-1739
▁dig	-1740
of	-1741
ross	-1742
▁apolog	-1743
tr	-1744
time	-1745
hy	-1746
file	-1747
▁15	-1748
ental	-1749
▁cent	-1750
vent	-1751
place	-1752
fort	-1753
▁head	-1754
▁present	-1755
ee	-1756
**	-1757
▁supp	-1758
▁similar	-1759
AR	-1760
▁employ	-1761
▁Ind	-1762
▁и	-1763
▁against	-1764
ume	-1765
▁variable	-1766
▁avoid	-1767
ctor	-1768
▁meaning	-1769
ufact	-1770
ouse	-1771
▁pref	-1772
▁Data	-1773
▁child	-1774
xic	-1775
▁idea	-1776
▁press	-1777
▁X	-1778
▁maintain	-1779
▁oc	-1780
--------	-1781
▁job	-1782
▁datas	-1783
▁negative	-1784
▁takes	-1785
▁last	-1786
▁concept	-1787
▁local	-1788
ties	-1789
▁subject	-1790
▁area	-1791
ape	-1792
то	-1793
▁appe	-1794
▁look	-1795
▁further	-1796
▁2,	-1797
▁Qu	-1798
me	-1799
▁govern	-1800
▁low	-1801
▁report	-1802
irt	-1803
▁pack	-1804
utical	-1805
▁yourself	-1806
raw	-1807
▁conditions	-1808
armace	-1809
▁particular	-1810
▁tri	-1811
EN	-1812
▁expect	-1813
▁query	-1814
▁position	-1815
armaceutical	-1816
▁continue	-1817
ists	-1818
nov	-1819
▁explain	-1820
num	-1821
▁air	-1822
ibility	-1823
anced	-1824
##	-1825
▁fre	-1826
ules	-1827
▁econom	-1828
iques	-1829
data	-1830
▁Res	-1831
▁With	-1832
▁weight	-1833
ze	-1834
▁three	-1835
▁source	-1836
itle	-1837
▁increase	-1838
aking	-1839
▁website	-1840
oci	-1841
▁sym	-1842
▁creating	-1843
▁looking	-1844
▁girl	-1845
LE	-1846
▁why	-1847
pportun	-1848
ins	-1849
for	-1850
▁apologize	-1851
▁processing	-1852
iving	-1853
▁vol	-1854
▁exec	-1855
▁statement	-1856
▁activities	-1857
▁less	-1858
▁orig	-1859
based	-1860
▁methods	-1861
▁files	-1862
col	-1863
▁manufact	-1864
▁library	-1865
▁She	-1866
▁required	-1867
▁vary	-1868
yn	-1869
▁Fin	-1870
▁Eng	-1871
▁rest	-1872
▁cour	-1873
izing	-1874
▁belie	-1875
▁temperature	-1876
way	-1877
▁path	-1878
▁additional	-1879
amp	-1880
▁install	-1881
▁efficient	-1882
▁structure	-1883
▁toxic	-1884
▁purpose	-1885
▁techniques	-1886
verage	-1887
▁intellig	-1888
▁And	-1889
idered	-1890
back	-1891
ivity	-1892
::	-1893
▁event	-1894
▁action	-1895
aries	-1896
quality	-1897
▁view	-1898
▁12	-1899
CT	-1900
▁true	-1901
▁considered	-1902
▁become	-1903
aring	-1904
▁с	-1905
▁harmful	-1906
your	-1907
▁Cl	-1908
▁polic	-1909
▁programming	-1910
▁•	-1911
▁online	-1912
-3	-1913
▁location	-1914
ffic	-1915
▁opportun	-1916
ished	-1917
ensive	-1918
▁gra	-1919
▁es	-1920
iety	-1921
▁element	-1922
▁error	-1923
▁regul	-1924
▁too	-1925
▁==	-1926
▁priv	-1927
cy	-1928
hor	-1929
tal	-1930
▁ant	-1931
wards	-1932
▁anim	-1933
idence	-1934
▁But	-1935
GPT	-1936
iled	-1937
atch	-1938
▁solution	-1939
▁article	-1940
▁Pl	-1941
`,	-1942
▁recogn	-1943
the	-1944
bal	-1945
▁final	-1946
mer	-1947
iment	-1948
▁Dis	-1949
▁fore	-1950
▁crit	-1951
oms	-1952
▁share	-1953
stream	-1954
▁terms	-1955
▁,	-1956
load	-1957
In	-1958
▁topic	-1959
ground	-1960
▁9.	-1961
▁ge	-1962
▁API	-1963
▁sound	-1964
▁synthesis	-1965
▁allowed	-1966
▁Be	-1967
▁home	-1968
▁reaction	-1969
▁whether	-1970
▁choice	-1971
alse	-1972
bed	-1973
▁prevent	-1974
▁device	-1975
▁summary	-1976
▁goal	-1977
wor	-1978
yes	-1979
estion	-1980
▁lay	-1981
▁sec	-1982
▁achieve	-1983
▁Go	-1984
care	-1985
▁him	-1986
ipp	-1987
▁due	-1988
iting	-1989
aster	-1990
▁datab	-1991
▁rand	-1992
▁elements	-1993
ission	-1994
▁stor	-1995
▁concer	-1996
▁video	-1997
oney	-1998
▁init	-1999
▁server	-2000
▁autom	-2001
▁stre	-2002
just	-2003
▁affect	-2004
▁display	-2005
▁max	-2006
▁circ	-2007
▁left	-2008
▁innov	-2009
▁estab	-2010
cent	-2011
abilities	-2012
▁deep	-2013
▁valid	-2014
▁lit	-2015
tend	-2016
▁leading	-2017
uments	-2018
▁dep	-2019
▁feelings	-2020
`.	-2021
▁player	-2022
▁total	-2023
11	-2024
▁random	-2025
▁upd	-2026
▁10.	-2027
▁remember	-2028
ides	-2029
atory	-2030
asing	-2031
▁choose	-2032
▁conversation	-2033
▁>	-2034
▁ethical	-2035
▁feeling	-2036
una	-2037
▁pharmaceutical	-2038
▁associ	-2039
aly	-2040
RE	-2041
▁match	-2042
▁images	-2043
RO	-2044
▁country	-2045
joy	-2046
▁actions	-2047
▁respond	-2048
▁going	-2049
▁minim	-2050
ection	-2051
gress	-2052
▁evalu	-2053
oke	-2054
ен	-2055
▁experiences	-2056
▁dru	-2057
het	-2058
▁?	-2059
order	-2060
▁growth	-2061
▁distrib	-2062
▁Ne	-2063
▁popular	-2064
ulf	-2065
▁block	-2066
▁medical	-2067
▁gl	-2068
▁sexual	-2069
▁properties	-2070
▁study	-2071
por	-2072
▁description	-2073
?"	-2074
▁mot	-2075
ons	-2076
arc	-2077
▁pa	-2078
▁GPT	-2079
▁port	-2080
ration	-2081
▁dataset	-2082
▁Des	-2083
▁humans	-2084
▁rout	-2085
25	-2086
iverse	-2087
▁educ	-2088
4-	-2089
▁prior	-2090
4.	-2091
▁Once	-2092
▁woman	-2093
▁needed	-2094
▁story	-2095
▁communication	-2096
utes	-2097
▁concerns	-2098
▁flow	-2099
▁relationships	-2100
min	-2101
iod	-2102
▁offer	-2103
▁memory	-2104
▁issue	-2105
▁trust	-2106
▁events	-2107
▁&	-2108
orth	-2109
▁review	-2110
▁topics	-2111
▁returns	-2112
ethyl	-2113
▁pain	-2114
▁ess	-2115
▁occur	-2116
▁contains	-2117
▁loop	-2118
ask	-2119
▁situation	-2120
▁н	-2121
▁hour	-2122
▁conne	-2123
icro	-2124
▁loss	-2125
▁processes	-2126
▁Ac	-2127
ush	-2128
▁explore	-2129
▁US	-2130
▁solutions	-2131
icuna	-2132
▁repeat	-2133
▁intelligence	-2134
list	-2135
▁br	-2136
▁sequ	-2137
▁history	-2138
▁к	-2139
▁integr	-2140
====	-2141
▁points	-2142
ipment	-2143
▁handle	-2144
▁come	-2145
▁highly	-2146
▁responsible	-2147
▁running	-2148
']	-2149
▁Open	-2150
AM	-2151
▁higher	-2152
▁engage	-2153
▁prote	-2154
▁exc	-2155
▁While	-2156
aces	-2157
▁enjoy	-2158
erences	-2159
ра	-2160
▁op	-2161
ailed	-2162
▁done	-2163
▁overall	-2164
▁measure	-2165
▁kind	-2166
come	-2167
▁respectful	-2168
▁makes	-2169
che	-2170
▁old	-2171
opy	-2172
▁arch	-2173
6,	-2174
ediate	-2175
▁experienc	-2176
iction	-2177
itable	-2178
anies	-2179
▁price	-2180
oad	-2181
idd	-2182
▁imm	-2183
▁glo	-2184
▁introdu	-2185
▁patient	-2186
til	-2187
▁describe	-2188
▁algorithm	-2189
QL	-2190
▁challenges	-2191
arent	-2192
ond	-2193
▁window	-2194
▁contrib	-2195
▁frame	-2196
▁sn	-2197
chan	-2198
▁environmental	-2199
▁taking	-2200
izes	-2201
▁original	-2202
▁never	-2203
▁dom	-2204
▁202	-2205
▁sat	-2206
▁areas	-2207
lying	-2208
▁Answer	-2209
fs	-2210
▁city	-2211
olution	-2212
▁expert	-2213
▁transform	-2214
ai	-2215
▁writing	-2216
▁ver	-2217
ights	-2218
▁sun	-2219
cle	-2220
ст	-2221
Ch	-2222
\_\_	-2223
▁benefits	-2224
itect	-2225
▁China	-2226
▁feed	-2227
▁extract	-2228
llo	-2229
▁adjust	-2230
▁requires	-2231
ologies	-2232
ruction	-2233
...	-2234
▁times	-2235
▁problems	-2236
▁25	-2237
▁hydro	-2238
▁aspect	-2239
▁gr	-2240
▁Chemical	-2241
▁Give	-2242
▁System	-2243
oura	-2244
▁trying	-2245
2)	-2246
erence	-2247
▁equipment	-2248
▁score	-2249
ision	-2250
izations	-2251
▁Therefore	-2252
▁full	-2253
▁limit	-2254
▁database	-2255
▁bot	-2256
▁associated	-2257
▁module	-2258
▁room	-2259
▁devices	-2260
▁reach	-2261
go	-2262
▁useful	-2263
▁lat	-2264
let	-2265
▁200	-2266
▁gain	-2267
PU	-2268
8,	-2269
▁decisions	-2270
▁"[	-2271
▁turn	-2272
▁family	-2273
▁gre	-2274
▁consist	-2275
▁functions	-2276
ро	-2277
]"	-2278
ait	-2279
▁separ	-2280
▁transl	-2281
▁starting	-2282
▁cr	-2283
▁money	-2284
▁emotions	-2285
work	-2286
sequ	-2287
my	-2288
▁effects	-2289
oud	-2290
▁talk	-2291
string	-2292
ida	-2293
▁produce	-2294
▁month	-2295
▁config	-2296
js	-2297
▁tax	-2298
ird	-2299
▁permit	-2300
lection	-2301
▁Gener	-2302
▁Ar	-2303
▁stay	-2304
▁industries	-2305
ining	-2306
-0	-2307
▁objects	-2308
lling	-2309
▁Z	-2310
▁having	-2311
older	-2312
▁(1	-2313
▁load	-2314
▁healthcare	-2315
▁exce	-2316
▁regular	-2317
fully	-2318
▁involve	-2319
▁coll	-2320
▁decision	-2321
SS	-2322
▁skin	-2323
▁companies	-2324
▁legal	-2325
></	-2326
▁Or	-2327
▁scient	-2328
▁Sc	-2329
▁details	-2330
▁face	-2331
leep	-2332
▁works	-2333
▁0,	-2334
▁activity	-2335
▁government	-2336
▁post	-2337
▁believe	-2338
iol	-2339
7,	-2340
head	-2341
▁2-	-2342
ording	-2343
▁norm	-2344
▁consum	-2345
▁button	-2346
▁Su	-2347
▁indic	-2348
terns	-2349
▁On	-2350
▁Finally	-2351
▁risks	-2352
imately	-2353
▁Man	-2354
etic	-2355
▁side	-2356
rop	-2357
▁Out	-2358
▁begin	-2359
▁promote	-2360
by	-2361
ager	-2362
▁powerful	-2363
▁refer	-2364
▁Te	-2365
▁16	-2366
▁Note	-2367
▁media	-2368
▁Def	-2369
erg	-2370
inc	-2371
abor	-2372
▁Chat	-2373
span	-2374
▁patterns	-2375
iency	-2376
atic	-2377
▁il	-2378
▁graph	-2379
rypt	-2380
ificial	-2381
aste	-2382
ux	-2383
hers	-2384
▁Set	-2385
▁cy	-2386
ised	-2387
▁break	-2388
▁close	-2389
▁treatment	-2390
ived	-2391
9,	-2392
▁Make	-2393
ips	-2394
▁white	-2395
▁algorithms	-2396
▁bal	-2397
assw	-2398
oks	-2399
▁dam	-2400
▁widely	-2401
▁reli	-2402
▁located	-2403
▁answ	-2404
rase	-2405
▁architect	-2406
ET	-2407
▁streng	-2408
▁organization	-2409
ug	-2410
ograph	-2411
▁period	-2412
▁interact	-2413
serv	-2414
▁until	-2415
▁maxim	-2416
ogle	-2417
isf	-2418
type	-2419
▁ideas	-2420
▁“	-2421
▁gen	-2422
▁lower	-2423
add	-2424
▁squ	-2425
▁That	-2426
0000	-2427
▁compet	-2428
50	-2429
▁prim	-2430
▁quick	-2431
▁strateg	-2432
▁super	-2433
ators	-2434
▁red	-2435
▁о	-2436
▁names	-2437
▁comfort	-2438
▁base	-2439
artment	-2440
▁created	-2441
uration	-2442
▁easy	-2443
arr	-2444
count	-2445
['	-2446
▁presence	-2447
▁condition	-2448
IT	-2449
sing	-2450
▁characters	-2451
▁flo	-2452
▁poly	-2453
▁div	-2454
▁students	-2455
▁background	-2456
▁frequ	-2457
▁hold	-2458
▁En	-2459
chool	-2460
hold	-2461
irtual	-2462
we	-2463
uro	-2464
▁mor	-2465
▁mar	-2466
▁30	-2467
▁fund	-2468
iles	-2469
istics	-2470
▁chatbot	-2471
▁speed	-2472
▁remain	-2473
osed	-2474
].	-2475
size	-2476
▁--	-2477
pre	-2478
key	-2479
▁д	-2480
▁ever	-2481
▁regard	-2482
▁Ltd	-2483
▁Rem	-2484
input	-2485
▁black	-2486
▁mom	-2487
▁levels	-2488
▁remove	-2489
▁property	-2490
▁length	-2491
▁index	-2492
inking	-2493
▁detect	-2494
▁attention	-2495
++	-2496
▁rules	-2497
▁towards	-2498
▁parameters	-2499
AL	-2500
▁influ	-2501
▁community	-2502
▁men	-2503
ть	-2504
те	-2505
use	-2506
OR	-2507
respon	-2508
ann	-2509
ilt	-2510
▁operations	-2511
▁fire	-2512
ension	-2513
▁directory	-2514
rast	-2515
▁internet	-2516
▁healthy	-2517
▁np	-2518
▁countries	-2519
//	-2520
▁items	-2521
▁pressure	-2522
▁beaut	-2523
legal	-2524
▁mechan	-2525
▁concl	-2526
idth	-2527
▁seek	-2528
▁repeating	-2529
ites	-2530
▁clean	-2531
▁bro	-2532
▁Cont	-2533
▁consult	-2534
▁components	-2535
ole	-2536
▁English	-2537
▁age	-2538
▁App	-2539
▁letter	-2540
▁equal	-2541
▁deg	-2542
▁assistance	-2543
AC	-2544
▁developed	-2545
▁18	-2546
ek	-2547
anger	-2548
rel	-2549
erv	-2550
▁essential	-2551
▁satisf	-2552
▁Ph	-2553
▁dise	-2554
▁commonly	-2555
df	-2556
▁doing	-2557
▁beliefs	-2558
▁interm	-2559
▁incor	-2560
▁monitor	-2561
ype	-2562
erc	-2563
▁testing	-2564
12	-2565
ane	-2566
▁sort	-2567
▁lot	-2568
но	-2569
▁cases	-2570
▁descript	-2571
▁answers	-2572
oper	-2573
▁sequence	-2574
▁obtain	-2575
ml	-2576
▁3,	-2577
ategy	-2578
▁groups	-2579
▁visual	-2580
▁quant	-2581
▁rather	-2582
abel	-2583
▁mag	-2584
car	-2585
▁aware	-2586
▁course	-2587
▁limited	-2588
ault	-2589
▁LLM	-2590
▁###	-2591
▁outputs	-2592
lam	-2593
▁put	-2594
di	-2595
▁illegal	-2596
▁clar	-2597
▁continu	-2598
rial	-2599
▁basic	-2600
ications	-2601
▁page	-2602
plit	-2603
▁refers	-2604
ression	-2605
ently	-2606
▁bit	-2607
acks	-2608
▁partner	-2609
don	-2610
▁м	-2611
▁deb	-2612
su	-2613
ler	-2614
anation	-2615
▁technologies	-2616
▁Trans	-2617
kay	-2618
▁land	-2619
sy	-2620
ological	-2621
▁hours	-2622
▁viol	-2623
▁strength	-2624
▁prob	-2625
▁calculate	-2626
lished	-2627
lude	-2628
▁mention	-2629
▁et	-2630
▁sample	-2631
▁past	-2632
▁manner	-2633
99	-2634
▁formul	-2635
▁Vicuna	-2636
value	-2637
sole	-2638
▁desired	-2639
lex	-2640
ields	-2641
▁py	-2642
ол	-2643
▁fit	-2644
▁ple	-2645
Frame	-2646
like	-2647
▁contact	-2648
▁United	-2649
cer	-2650
▁society	-2651
▁constant	-2652
▁difference	-2653
ML	-2654
bon	-2655
▁style	-2656
ters	-2657
▁series	-2658
(1	-2659
▁draw	-2660
gen	-2661
▁offers	-2662
▁connection	-2663
▁Thank	-2664
af	-2665
5-	-2666
▁email	-2667
▁advanced	-2668
▁speak	-2669
rong	-2670
▁days	-2671
7.	-2672
▁opin	-2673
ively	-2674
▁exact	-2675
▁mental	-2676
▁businesses	-2677
▁involved	-2678
ories	-2679
▁bat	-2680
▁brow	-2681
▁particip	-2682
ches	-2683
▁analyze	-2684
▁capt	-2685
assword	-2686
▁track	-2687
▁mass	-2688
▁artificial	-2689
▁promot	-2690
SE	-2691
ox	-2692
▁commitment	-2693
▁blo	-2694
▁ded	-2695
hat	-2696
des	-2697
▁fem	-2698
▁organizations	-2699
▁bound	-2700
▁scen	-2701
▁since	-2702
▁practices	-2703
▁author	-2704
ulate	-2705
▁standard	-2706
board	-2707
ategory	-2708
▁instead	-2709
();	-2710
elines	-2711
ift	-2712
log	-2713
▁school	-2714
▁perspect	-2715
▁Expl	-2716
▁education	-2717
▁subst	-2718
▁digital	-2719
▁ut	-2720
▁detailed	-2721
▁Name	-2722
▁1:	-2723
write	-2724
▁heart	-2725
▁measures	-2726
▁df	-2727
cription	-2728
[0	-2729
elt	-2730
▁13	-2731
▁sche	-2732
▁economic	-2733
▁capabilities	-2734
▁accept	-2735
ma	-2736
▁preferences	-2737
▁storage	-2738
▁standards	-2739
▁said	-2740
erson	-2741
▁Question	-2742
5.	-2743
▁conclusion	-2744
▁screen	-2745
▁average	-2746
▁stop	-2747
▁consequ	-2748
▁</	-2749
▁women	-2750
Name	-2751
jor	-2752
▁global	-2753
▁big	-2754
▁assess	-2755
SON	-2756
▁cells	-2757
▁seem	-2758
fer	-2759
://	-2760
orts	-2761
rix	-2762
▁committed	-2763
AI	-2764
uck	-2765
▁Add	-2766
ditional	-2767
▁across	-2768
osp	-2769
side	-2770
▁opportunities	-2771
▁Prov	-2772
hetic	-2773
uted	-2774
▁hot	-2775
▁researc	-2776
▁gender	-2777
▁feedback	-2778
over	-2779
lear	-2780
pecial	-2781
▁initial	-2782
ored	-2783
ror	-2784
inary	-2785
illion	-2786
ees	-2787
▁ready	-2788
arge	-2789
▁expression	-2790
ech	-2791
▁Now	-2792
▁sem	-2793
▁Another	-2794
▁progress	-2795
▁sustainability	-2796
▁accuracy	-2797
▁Inc	-2798
being	-2799
▁travel	-2800
raft	-2801
asure	-2802
▁law	-2803
▁hello	-2804
oring	-2805
▁compl	-2806
friend	-2807
aling	-2808
▁receive	-2809
▁marketing	-2810
▁%	-2811
▁worth	-2812
▁itself	-2813
▁evaluate	-2814
▁phot	-2815
hens	-2816
▁nature	-2817
▁client	-2818
▁virtual	-2819
ES	-2820
▁enough	-2821
ats	-2822
roll	-2823
ging	-2824
▁cut	-2825
▁Ke	-2826
▁latest	-2827
▁root	-2828
orks	-2829
point	-2830
▁efficiency	-2831
ude	-2832
▁CO	-2833
ре	-2834
16	-2835
▁Pre	-2836
▁guidance	-2837
▁variables	-2838
irm	-2839
▁deli	-2840
▁danger	-2841
▁capable	-2842
▁caused	-2843
▁effectively	-2844
▁friends	-2845
▁diag	-2846
▁children	-2847
▁Output	-2848
▁Define	-2849
▁suitable	-2850
▁resulting	-2851
encies	-2852
chlor	-2853
unction	-2854
rive	-2855
utton	-2856
▁Cons	-2857
▁generated	-2858
▁architecture	-2859
▁pie	-2860
▁distance	-2861
▁strategy	-2862
ges	-2863
ili	-2864
▁science	-2865
▁investment	-2866
▁consequences	-2867
▁argument	-2868
▁demand	-2869
user	-2870
▁Pr	-2871
▁conduct	-2872
▁manufacturing	-2873
▁asking	-2874
▁Sp	-2875
▁buy	-2876
▁fine	-2877
Cl	-2878
▁prin	-2879
iversity	-2880
sor	-2881
▁der	-2882
rap	-2883
▁card	-2884
icated	-2885
""	-2886
newable	-2887
▁evidence	-2888
cont	-2889
▁music	-2890
▁iter	-2891
▁away	-2892
orn	-2893
Pro	-2894
image	-2895
cking	-2896
▁solve	-2897
])	-2898
▁dr	-2899
comes	-2900
▁sets	-2901
▁Are	-2902
▁properly	-2903
▁encoura	-2904
ones	-2905
▁fix	-2906
ли	-2907
▁sales	-2908
▁combination	-2909
▁collect	-2910
train	-2911
outh	-2912
mon	-2913
ront	-2914
lt	-2915
▁convert	-2916
icles	-2917
AA	-2918
▁getting	-2919
▁developing	-2920
aches	-2921
▁valu	-2922
▁eyes	-2923
32	-2924
▁implementation	-2925
igate	-2926
▁ste	-2927
▁lic	-2928
▁paper	-2929
▁Comp	-2930
light	-2931
▁update	-2932
oice	-2933
▁potentially	-2934
▁specified	-2935
▁compre	-2936
▁interested	-2937
OT	-2938
▁JSON	-2939
itions	-2940
▁expected	-2941
▁perm	-2942
='	-2943
▁Ag	-2944
▁},	-2945
▁Google	-2946
▁abilities	-2947
▁tou	-2948
▁practice	-2949
▁2023	-2950
▁dest	-2951
▁sleep	-2952
ither	-2953
bol	-2954
atively	-2955
▁secure	-2956
▁innovation	-2957
irection	-2958
▁live	-2959
-2-	-2960
▁polit	-2961
ising	-2962
▁bring	-2963
▁appear	-2964
▁proced	-2965
ет	-2966
▁vul	-2967
▁box	-2968
▁gas	-2969
▁directly	-2970
▁war	-2971
ready	-2972
▁arr	-2973
plot	-2974
1:	-2975
▁component	-2976
____	-2977
do	-2978
▁serious	-2979
▁guidelines	-2980
nds	-2981
▁miss	-2982
▁States	-2983
▁advice	-2984
▁distribution	-2985
▁regulations	-2986
6-	-2987
une	-2988
▁fulf	-2989
▁Based	-2990
▁square	-2991
iet	-2992
▁struct	-2993
fect	-2994
au	-2995
▁Model	-2996
sol	-2997
sv	-2998
▁scenari	-2999
▁priorit	-3000
tings	-3001
▁strategies	-3002
▁pen	-3003
ynam	-3004
▁policies	-3005
▁inside	-3006
▁dog	-3007
▁communicate	-3008
▁veh	-3009
▁equation	-3010
▁specif	-3011
ym	-3012
itch	-3013
▁row	-3014
▁setting	-3015
▁technical	-3016
▁taken	-3017
▁blood	-3018
▁attrib	-3019
ED	-3020
▁apply	-3021
▁Develop	-3022
▁IN	-3023
▁formula	-3024
uild	-3025
▁Am	-3026
appro	-3027
▁traditional	-3028
▁SQL	-3029
!"	-3030
oin	-3031
dd	-3032
▁matter	-3033
▁ing	-3034
▁adapt	-3035
▁book	-3036
▁researchers	-3037
▁4,	-3038
▁defin	-3039
▁sympt	-3040
▁comprehens	-3041
ended	-3042
▁culture	-3043
▁engaging	-3044
▁increasing	-3045
ening	-3046
▁quickly	-3047
▁little	-3048
">	-3049
▁reactions	-3050
▁pharmaceuticals	-3051
sel	-3052
▁Check	-3053
▁importance	-3054
sert	-3055
▁normal	-3056
▁prec	-3057
▁heat	-3058
▁console	-3059
▁ur	-3060
▁Why	-3061
LL	-3062
ва	-3063
▁audio	-3064
▁reasons	-3065
orld	-3066
Data	-3067
▁\*	-3068
ye	-3069
▁mil	-3070
omet	-3071
▁robot	-3072
aim	-3073
antic	-3074
▁etc	-3075
▁ensuring	-3076
▁wrong	-3077
▁package	-3078
ION	-3079
▁sustainable	-3080
▁After	-3081
▁Em	-3082
▁react	-3083
▁columns	-3084
▁fields	-3085
amer	-3086
▁everyone	-3087
▁define	-3088
▁already	-3089
pper	-3090
▁increased	-3091
▁brand	-3092
▁assign	-3093
▁Then	-3094
▁comfortable	-3095
odes	-3096
aged	-3097
▁warm	-3098
▁interface	-3099
▁generating	-3100
▁Ear	-3101
ney	-3102
IC	-3103
ired	-3104
▁population	-3105
▁4-	-3106
icit	-3107
ube	-3108
▁parent	-3109
▁easily	-3110
80	-3111
▁filter	-3112
▁offensive	-3113
▁HT	-3114
▁ChatGPT	-3115
▁represents	-3116
ises	-3117
▁princi	-3118
selves	-3119
▁damage	-3120
▁operating	-3121
ids	-3122
▁plot	-3123
▁minutes	-3124
land	-3125
▁larger	-3126
▁Get	-3127
▁percent	-3128
▁pattern	-3129
box	-3130
amine	-3131
▁electron	-3132
▁thoughts	-3133
▁flu	-3134
▁neural	-3135
▁2:	-3136
▁lines	-3137
▁fulfill	-3138
▁mal	-3139
eria	-3140
Hello	-3141
▁four	-3142
▁advant	-3143
andas	-3144
▁board	-3145
hest	-3146
▁house	-3147
▁maximum	-3148
15	-3149
▁height	-3150
▁cultural	-3151
▁costs	-3152
▁yes	-3153
osing	-3154
▁audience	-3155
mar	-3156
word	-3157
▁stream	-3158
▁0;	-3159
▁bar	-3160
▁save	-3161
ocks	-3162
▁prep	-3163
▁achie	-3164
▁ball	-3165
▁Instead	-3166
▁greater	-3167
ino	-3168
pping	-3169
▁won	-3170
astic	-3171
inter	-3172
▁=>	-3173
▁allowing	-3174
^^	-3175
▁forward	-3176
▁handling	-3177
aw	-3178
ни	-3179
▁Step	-3180
▁updated	-3181
▁SE	-3182
down	-3183
urance	-3184
onstr	-3185
etime	-3186
▁Remember	-3187
test	-3188
▁flex	-3189
▁confusion	-3190
bl	-3191
▁blue	-3192
process	-3193
▁repl	-3194
▁student	-3195
hemat	-3196
ны	-3197
▁critical	-3198
▁remo	-3199
▁mist	-3200
▁projects	-3201
ele	-3202
amed	-3203
▁status	-3204
8.	-3205
▁identity	-3206
alking	-3207
▁transport	-3208
▁correspon	-3209
▁Cal	-3210
▁symptoms	-3211
earch	-3212
avor	-3213
▁smaller	-3214
▁consistent	-3215
▁private	-3216
▁animals	-3217
Tr	-3218
▁enter	-3219
▁ang	-3220
▁replace	-3221
▁contract	-3222
ply	-3223
▁id	-3224
ww	-3225
▁fully	-3226
▁primary	-3227
▁reliable	-3228
▁introduction	-3229
▁shape	-3230
appropriate	-3231
▁moment	-3232
▁living	-3233
▁Py	-3234
▁)	-3235
▁expertise	-3236
IM	-3237
▁third	-3238
▁income	-3239
Th	-3240
ik	-3241
pecially	-3242
▁thinking	-3243
empt	-3244
30	-3245
▁establish	-3246
ried	-3247
oph	-3248
▁major	-3249
▁employees	-3250
▁modify	-3251
▁thought	-3252
aa	-3253
▁**	-3254
▁drugs	-3255
▁experienced	-3256
▁micro	-3257
14	-3258
▁opp	-3259
sych	-3260
ump	-3261
met	-3262
▁parameter	-3263
term	-3264
print	-3265
▁existing	-3266
rie	-3267
▁tim	-3268
cks	-3269
1)	-3270
▁brain	-3271
bs	-3272
osure	-3273
▁especially	-3274
▁recommended	-3275
▁Act	-3276
▁agent	-3277
▁scientific	-3278
tml	-3279
▁parts	-3280
▁title	-3281
▁Our	-3282
▁exerc	-3283
▁written	-3284
game	-3285
▁capac	-3286
▁false	-3287
know	-3288
▁signal	-3289
▁demonstr	-3290
▁started	-3291
▁diverse	-3292
iful	-3293
▁14	-3294
100	-3295
▁cool	-3296
▁fast	-3297
▁laws	-3298
▁по	-3299
ah	-3300
arily	-3301
Script	-3302
ior	-3303
code	-3304
▁vulner	-3305
▁At	-3306
▁touch	-3307
▁sentiment	-3308
inf	-3309
ensor	-3310
▁sell	-3311
▁interests	-3312
inate	-3313
▁label	-3314
▁reflect	-3315
▁hyp	-3316
▁reput	-3317
▁force	-3318
▁inappropriate	-3319
ialog	-3320
▁valuable	-3321
▁rights	-3322
▁particularly	-3323
▁errors	-3324
▁mis	-3325
words	-3326
▁clust	-3327
gest	-3328
▁really	-3329
▁specify	-3330
ocol	-3331
raction	-3332
▁purch	-3333
Con	-3334
▁cou	-3335
rastructure	-3336
▁green	-3337
▁programs	-3338
▁generally	-3339
right	-3340
▁ST	-3341
▁weather	-3342
CH	-3343
ners	-3344
ags	-3345
force	-3346
▁requests	-3347
▁night	-3348
▁reducing	-3349
▁mathemat	-3350
atives	-3351
▁dangerous	-3352
▁Earth	-3353
▁3-	-3354
▁manufacture	-3355
▁recent	-3356
▁Start	-3357
essage	-3358
▁longer	-3359
▁languages	-3360
▁depends	-3361
▁collabor	-3362
▁intermediate	-3363
▁built	-3364
▁dim	-3365
ything	-3366
▁prompts	-3367
^2	-3368
▁World	-3369
▁balance	-3370
ttps	-3371
po	-3372
▁along	-3373
▁myself	-3374
▁networks	-3375
▁aspects	-3376
▁highest	-3377
bit	-3378
▁players	-3379
rimid	-3380
▁AS	-3381
▁male	-3382
gra	-3383
▁24	-3384
▁fall	-3385
ategor	-3386
▁<<	-3387
CI	-3388
▁comes	-3389
19	-3390
▁least	-3391
reci	-3392
▁center	-3393
roup	-3394
▁stress	-3395
▁stock	-3396
alyst	-3397
▁members	-3398
▁mov	-3399
▁assum	-3400
▁protection	-3401
▁young	-3402
▁align	-3403
▁among	-3404
ava	-3405
▁either	-3406
Re	-3407
6.	-3408
▁goes	-3409
▁defined	-3410
▁sho	-3411
Ex	-3412
▁attract	-3413
▁according	-3414
iveness	-3415
Com	-3416
▁bed	-3417
▁adding	-3418
▁enable	-3419
unch	-3420
▁clients	-3421
▁nav	-3422
iddle	-3423
▁First	-3424
ung	-3425
▁section	-3426
▁capital	-3427
cal	-3428
▁pleasure	-3429
▁easier	-3430
pir	-3431
rate	-3432
▁Aut	-3433
▁established	-3434
)-	-3435
fficient	-3436
▁mole	-3437
agraph	-3438
▁на	-3439
▁Input	-3440
▁mode	-3441
▁hon	-3442
▁altern	-3443
▁construct	-3444
▁seen	-3445
▁stru	-3446
▁simply	-3447
lick	-3448
▁perfect	-3449
▁qual	-3450
▁hands	-3451
▁policy	-3452
▁Test	-3453
spe	-3454
▁prioritize	-3455
tery	-3456
▁surface	-3457
▁descriptive	-3458
▁conver	-3459
lorida	-3460
},	-3461
▁actual	-3462
Id	-3463
22	-3464
▁messages	-3465
rics	-3466
▁female	-3467
▁host	-3468
aves	-3469
ese	-3470
▁comprehensive	-3471
▁agree	-3472
ql	-3473
▁pd	-3474
indows	-3475
▁transfer	-3476
▁attack	-3477
▁forms	-3478
▁frequency	-3479
YS	-3480
▁password	-3481
eries	-3482
atio	-3483
ged	-3484
▁fig	-3485
▁trusted	-3486
orch	-3487
DD	-3488
▁Reg	-3489
▁token	-3490
▁region	-3491
▁Florida	-3492
ero	-3493
urope	-3494
ROM	-3495
▁DAN	-3496
▁concepts	-3497
▁Who	-3498
▁stored	-3499
▁generation	-3500
▁2000	-3501
▁industrial	-3502
▁separate	-3503
▁instruction	-3504
▁explanation	-3505
▁drug	-3506
ATE	-3507
▁Lo	-3508
▁ко	-3509
ords	-3510
▁manip	-3511
▁matrix	-3512
▁enh	-3513
▁carefully	-3514
▁Organ	-3515
▁jour	-3516
▁political	-3517
▁ID	-3518
▁sensitive	-3519
ак	-3520
▁active	-3521
▁fr	-3522
▁pair	-3523
▁foot	-3524
▁programmed	-3525
▁11	-3526
▁supply	-3527
33	-3528
MA	-3529
▁phone	-3530
include	-3531
▁symbol	-3532
▁diction	-3533
hent	-3534
▁gram	-3535
ouble	-3536
▁5,	-3537
▁DataFrame	-3538
▁climate	-3539
icial	-3540
▁drive	-3541
▁disease	-3542
position	-3543
fig	-3544
▁breath	-3545
lib	-3546
uations	-3547
▁coord	-3548
fit	-3549
▁settings	-3550
▁fib	-3551
▁platforms	-3552
▁Hi	-3553
▁rows	-3554
▁mix	-3555
▁recognize	-3556
da	-3557
ales	-3558
▁plant	-3559
off	-3560
reme	-3561
ри	-3562
▁Which	-3563
▁rev	-3564
▁strugg	-3565
▁wait	-3566
▁factor	-3567
aur	-3568
▁ones	-3569
dim	-3570
▁bad	-3571
▁domain	-3572
▁bir	-3573
▁psych	-3574
ache	-3575
flow	-3576
hing	-3577
▁impl	-3578
ridine	-3579
▁Could	-3580
▁phrase	-3581
▁department	-3582
];	-3583
▁clarify	-3584
▁vector	-3585
▁smart	-3586
book	-3587
▁contribute	-3588
▁std	-3589
▁profession	-3590
▁hair	-3591
▁Le	-3592
▁doesn	-3593
64	-3594
meric	-3595
▁deploy	-3596
illed	-3597
▁ingred	-3598
▁connected	-3599
ography	-3600
▁probability	-3601
room	-3602
▁win	-3603
▁shown	-3604
pty	-3605
▁Hum	-3606
▁paragraph	-3607
▁link	-3608
▁differences	-3609
▁beautiful	-3610
icious	-3611
ternal	-3612
inux	-3613
▁willing	-3614
▁added	-3615
▁raw	-3616
▁mentioned	-3617
ptions	-3618
▁surround	-3619
▁currently	-3620
def	-3621
/2	-3622
change	-3623
▁All	-3624
▁dynam	-3625
na	-3626
▁emotional	-3627
▁dark	-3628
ury	-3629
aced	-3630
▁pip	-3631
▁cloud	-3632
itation	-3633
rror	-3634
aving	-3635
▁follows	-3636
▁oil	-3637
▁speech	-3638
nding	-3639
▁opinions	-3640
▁da	-3641
poses	-3642
▁appl	-3643
▁consc	-3644
son	-3645
apan	-3646
idity	-3647
ENT	-3648
nter	-3649
▁characteristics	-3650
▁operation	-3651
▁improving	-3652
udget	-3653
▁carbon	-3654
▁layer	-3655
alled	-3656
othing	-3657
▁conflic	-3658
▁os	-3659
▁ground	-3660
▁_	-3661
▁insights	-3662
▁integer	-3663
▁implemented	-3664
▁incorrect	-3665
▁entire	-3666
▁chann	-3667
lier	-3668
▁summar	-3669
▁appreci	-3670
▁Up	-3671
net	-3672
angle	-3673
OP	-3674
▁games	-3675
9.	-3676
▁regardless	-3677
▁scene	-3678
▁ir	-3679
▁inde	-3680
","	-3681
▁opportunity	-3682
reg	-3683
▁choices	-3684
▁slow	-3685
▁dedicated	-3686
▁reply	-3687
▁informative	-3688
comp	-3689
txt	-3690
oding	-3691
akes	-3692
▁got	-3693
▁retrie	-3694
▁discrim	-3695
▁okay	-3696
▁fees	-3697
▁Text	-3698
pret	-3699
▁diet	-3700
▁From	-3701
▁arguments	-3702
▁fail	-3703
▁Tra	-3704
▁states	-3705
▁privacy	-3706
▁describ	-3707
▁developers	-3708
▁infrastructure	-3709
LECT	-3710
▁Using	-3711
ses	-3712
izer	-3713
▁inj	-3714
sum	-3715
========	-3716
▁tree	-3717
▁motiv	-3718
-3-	-3719
▁everything	-3720
phas	-3721
▁conscious	-3722
loc	-3723
mission	-3724
▁catalyst	-3725
▁camer	-3726
:00	-3727
olve	-3728
▁hardware	-3729
inese	-3730
▁successful	-3731
utral	-3732
▁hear	-3733
venue	-3734
▁limitations	-3735
->	-3736
▁dictionary	-3737
ND	-3738
ffer	-3739
umn	-3740
▁aim	-3741
ison	-3742
▁news	-3743
▁direction	-3744
▁Europe	-3745
▁Ult	-3746
dis	-3747
index	-3748
▁nut	-3749
▁volume	-3750
▁framework	-3751
▁cancer	-3752
▁threat	-3753
ival	-3754
inks	-3755
ession	-3756
tes	-3757
verse	-3758
▁unit	-3759
▁near	-3760
▁felt	-3761
▁waste	-3762
45	-3763
▁Provide	-3764
CO	-3765
▁once	-3766
▁themselves	-3767
▁synthetic	-3768
osis	-3769
▁eat	-3770
▁Americ	-3771
\_\_\_\_	-3772
gment	-3773
▁execute	-3774
▁commands	-3775
▁lives	-3776
▁categor	-3777
Text	-3778
tem	-3779
▁million	-3780
▁copy	-3781
▁Consider	-3782
▁changing	-3783
ени	-3784
▁mob	-3785
▁Large	-3786
▁claim	-3787
▁creates	-3788
▁з	-3789
oken	-3790
pped	-3791
aff	-3792
▁installed	-3793
▁Col	-3794
▁explicit	-3795
NA	-3796
▁Me	-3797
▁Techn	-3798
2-	-3799
▁Per	-3800
ister	-3801
▁empty	-3802
▁emerg	-3803
▁plt	-3804
rency	-3805
▁engineering	-3806
▁five	-3807
▁principles	-3808
▁@	-3809
▁expand	-3810
▁interactions	-3811
▁causing	-3812
emic	-3813
▁percentage	-3814
▁Disorder	-3815
▁5-	-3816
▁predictions	-3817
▁watch	-3818
▁shows	-3819
OS	-3820
mod	-3821
▁40	-3822
40	-3823
▁spread	-3824
issions	-3825
▁universe	-3826
iation	-3827
▁purposes	-3828
▁suggestions	-3829
▁б	-3830
▁record	-3831
▁named	-3832
60	-3833
▁relax	-3834
▁cru	-3835
▁outside	-3836
▁minimize	-3837
▁ax	-3838
isms	-3839
▁detail	-3840
17	-3841
▁Id	-3842
▁extreme	-3843
18	-3844
▁New	-3845
sub	-3846
▁planning	-3847
▁organic	-3848
▁happen	-3849
UR	-3850
amples	-3851
pes	-3852
▁voice	-3853
▁analyz	-3854
hib	-3855
▁guess	-3856
dom	-3857
erate	-3858
▁complexity	-3859
IS	-3860
med	-3861
▁cos	-3862
▁Print	-3863
▁focused	-3864
▁challenging	-3865
alue	-3866
▁electric	-3867
▁provider	-3868
meth	-3869
▁asked	-3870
wise	-3871
▁cross	-3872
▁websites	-3873
▁Mon	-3874
▁chain	-3875
▁Intern	-3876
▁compare	-3877
▁concern	-3878
hol	-3879
itude	-3880
LP	-3881
To	-3882
----------------	-3883
▁intended	-3884
▁documentation	-3885
itate	-3886
coming	-3887
▁encourage	-3888
▁behind	-3889
▁constantly	-3890
▁vac	-3891
frame	-3892
odium	-3893
▁Rep	-3894
▁procedures	-3895
ached	-3896
lay	-3897
Your	-3898
▁honest	-3899
init	-3900
▁decre	-3901
▁мо	-3902
▁nuc	-3903
AB	-3904
▁usually	-3905
▁satisfaction	-3906
▁{"	-3907
▁cand	-3908
▁week	-3909
▁unable	-3910
▁situations	-3911
▁budget	-3912
▁statements	-3913
You	-3914
top	-3915
▁Product	-3916
▁remote	-3917
TP	-3918
output	-3919
ensity	-3920
iliar	-3921
▁international	-3922
▁cert	-3923
▁swe	-3924
▁corresponding	-3925
▁modern	-3926
▁scale	-3927
▁Japan	-3928
▁Generate	-3929
▁creative	-3930
▁1)	-3931
▁configuration	-3932
▁Keep	-3933
`:	-3934
▁trends	-3935
▁node	-3936
▁pow	-3937
00,	-3938
▁completely	-3939
▁joke	-3940
▁Systems	-3941
ipe	-3942
▁!	-3943
AS	-3944
▁weak	-3945
array	-3946
▁Take	-3947
item	-3948
▁fill	-3949
▁scenario	-3950
▁fra	-3951
▁emphas	-3952
MS	-3953
▁Each	-3954
▁documents	-3955
orrow	-3956
[1	-3957
eline	-3958
WS	-3959
▁colors	-3960
eral	-3961
oxy	-3962
▁RE	-3963
▁external	-3964
▁attempt	-3965
▁playing	-3966
▁finding	-3967
rief	-3968
▁renewable	-3969
▁Under	-3970
▁strings	-3971
▁fee	-3972
▁True	-3973
▁approx	-3974
▁concise	-3975
▁front	-3976
▁17	-3977
▁perspective	-3978
ceed	-3979
▁tips	-3980
▁Bo	-3981
rapy	-3982
button	-3983
▁tail	-3984
br	-3985
▁ban	-3986
▁resist	-3987
umber	-3988
press	-3989
▁dialog	-3990
▁noting	-3991
GB	-3992
▁ill	-3993
▁underlying	-3994
▁facilities	-3995
xiety	-3996
idden	-3997
▁maintaining	-3998
cast	-3999
MP	-4000
▁compared	-4001
▁exposure	-4002
ocial	-4003
▁capture	-4004
start	-4005
▁var	-4006
▁category	-4007
▁compounds	-4008
▁experiencing	-4009
ming	-4010
AD	-4011
▁payment	-4012
▁Windows	-4013
▁folder	-4014
model	-4015
▁tests	-4016
urt	-4017
▁instance	-4018
raz	-4019
▁HTML	-4020
▁promoting	-4021
▁sounds	-4022
▁Java	-4023
usive	-4024
▁bul	-4025
ffect	-4026
methyl	-4027
▁imag	-4028
▁traffic	-4029
tage	-4030
5)	-4031
▁leg	-4032
quest	-4033
▁authent	-4034
▁click	-4035
▁leave	-4036
▁pandas	-4037
title	-4038
го	-4039
2:	-4040
minist	-4041
▁guide	-4042
▁hor	-4043
▁Russ	-4044
ooth	-4045
source	-4046
▁professionals	-4047
iance	-4048
gers	-4049
aps	-4050
DF	-4051
▁core	-4052
▁growing	-4053
idget	-4054
▁feet	-4055
imal	-4056
▁yet	-4057
▁didn	-4058
Col	-4059
▁lack	-4060
▁default	-4061
▁eye	-4062
▁specifically	-4063
What	-4064
[0]	-4065
ixt	-4066
vere	-4067
▁Ultimately	-4068
▁member	-4069
holders	-4070
body	-4071
▁dra	-4072
▁List	-4073
▁camp	-4074
▁moving	-4075
json	-4076
▁er	-4077
henyl	-4078
▁Indust	-4079
▁determined	-4080
▁vehicle	-4081
state	-4082
▁managing	-4083
enses	-4084
▁Hy	-4085
▁Serv	-4086
fol	-4087
▁translation	-4088
-4	-4089
");	-4090
Error	-4091
▁suggests	-4092
▁trade	-4093
▁boundaries	-4094
enz	-4095
▁Chinese	-4096
att	-4097
▁du	-4098
umb	-4099
▁egg	-4100
▁liqu	-4101
▁animal	-4102
related	-4103
veloper	-4104
▁Med	-4105
▁crypt	-4106
▁circum	-4107
▁whole	-4108
▁Since	-4109
ots	-4110
▁species	-4111
xide	-4112
▁Dep	-4113
▁mut	-4114
▁Ident	-4115
▁anti	-4116
▁JavaScript	-4117
▁cover	-4118
ля	-4119
▁numer	-4120
▁hypot	-4121
vest	-4122
ew	-4123
ously	-4124
dule	-4125
vey	-4126
vas	-4127
▁independ	-4128
ought	-4129
tenance	-4130
▁improved	-4131
ster	-4132
▁propos	-4133
▁void	-4134
cel	-4135
rical	-4136
-4-	-4137
dat	-4138
▁protocol	-4139
trans	-4140
▁rule	-4141
▁bott	-4142
▁amounts	-4143
ched	-4144
▁Other	-4145
▁anyone	-4146
▁workers	-4147
ibilities	-4148
▁60	-4149
▁fair	-4150
▁tur	-4151
▁immediate	-4152
▁manager	-4153
▁relig	-4154
▁economy	-4155
gar	-4156
▁monitoring	-4157
▁mother	-4158
▁---	-4159
▁bra	-4160
ams	-4161
ensions	-4162
▁correctly	-4163
▁1000	-4164
▁race	-4165
▁Organization	-4166
▁IT	-4167
man	-4168
▁libraries	-4169
itors	-4170
▁haz	-4171
▁GPU	-4172
ocket	-4173
▁credit	-4174
hydro	-4175
IG	-4176
▁cup	-4177
▁simpl	-4178
▁fu	-4179
▁emb	-4180
oo	-4181
▁labor	-4182
70	-4183
ctors	-4184
▁dry	-4185
▁Person	-4186
▁studies	-4187
Se	-4188
icy	-4189
yond	-4190
▁mark	-4191
lim	-4192
▁walk	-4193
AP	-4194
▁embed	-4195
▁entity	-4196
▁prime	-4197
▁India	-4198
▁couldn	-4199
▁util	-4200
▁wearing	-4201
▁informed	-4202
▁Ret	-4203
▁FROM	-4204
.\	-4205
▁bank	-4206
▁actually	-4207
▁innovative	-4208
going	-4209
aby	-4210
▁Instruction	-4211
▁accurately	-4212
▁release	-4213
▁Don	-4214
▁restr	-4215
▁Explain	-4216
▁interesting	-4217
▁indicate	-4218
▁pict	-4219
An	-4220
itary	-4221
▁technique	-4222
omb	-4223
13	-4224
label	-4225
▁insurance	-4226
▁recommendations	-4227
osition	-4228
▁Respon	-4229
izz	-4230
▁json	-4231
pth	-4232
▁route	-4233
▁pan	-4234
csv	-4235
chain	-4236
▁Comm	-4237
▁shap	-4238
▁causes	-4239
▁tone	-4240
formation	-4241
90	-4242
▁detection	-4243
anguage	-4244
▁incl	-4245
▁Fe	-4246
▁theory	-4247
▁histor	-4248
▁download	-4249
▁videos	-4250
gricult	-4251
▁representation	-4252
▁usage	-4253
▁trading	-4254
▁interpret	-4255
▁Given	-4256
▁Lear	-4257
▁answering	-4258
otal	-4259
▁Just	-4260
level	-4261
augh	-4262
▁que	-4263
▁knew	-4264
▁lif	-4265
zz	-4266
roid	-4267
icing	-4268
▁Say	-4269
▁solar	-4270
▁Oh	-4271
plate	-4272
▁appears	-4273
▁Custom	-4274
▁excell	-4275
▁double	-4276
ancing	-4277
"]	-4278
DE	-4279
mm	-4280
▁subs	-4281
3-	-4282
▁perce	-4283
▁enhance	-4284
rees	-4285
``	-4286
ERT	-4287
▁wear	-4288
'.	-4289
▁quantum	-4290
((	-4291
▁Bl	-4292
soft	-4293
▁reference	-4294
ryst	-4295
▁...	-4296
ugg	-4297
▁reputation	-4298
▁cook	-4299
▁Good	-4300
herent	-4301
color	-4302
▁ord	-4303
▁updates	-4304
enge	-4305
▁mobile	-4306
append	-4307
▁shall	-4308
irus	-4309
uth	-4310
▁responsibility	-4311
amb	-4312
▁Micro	-4313
▁daily	-4314
PE	-4315
▁crucial	-4316
▁patients	-4317
▁wind	-4318
▁communities	-4319
ops	-4320
▁classification	-4321
▁flor	-4322
▁produced	-4323
ال	-4324
▁terminal	-4325
▁road	-4326
▁ratio	-4327
US	-4328
▁atm	-4329
▁throughout	-4330
List	-4331
▁dress	-4332
▁familiar	-4333
icide	-4334
rimidine	-4335
dir	-4336
cin	-4337
24	-4338
acci	-4339
atile	-4340
▁rates	-4341
([	-4342
67	-4343
▁deliver	-4344
pid	-4345
▁transportation	-4346
▁inputs	-4347
на	-4348
▁shared	-4349
▁camera	-4350
width	-4351
▁exercise	-4352
▁tok	-4353
▁applied	-4354
▁Tell	-4355
▁death	-4356
▁Power	-4357
▁radi	-4358
▁width	-4359
▁plans	-4360
▁followed	-4361
():	-4362
▁peace	-4363
▁keys	-4364
▁WH	-4365
▁11.	-4366
onacci	-4367
▁Germ	-4368
▁Next	-4369
▁voltage	-4370
▁influence	-4371
▁mixt	-4372
▁faster	-4373
▁Not	-4374
▁stake	-4375
ana	-4376
No	-4377
function	-4378
ifications	-4379
ded	-4380
ск	-4381
▁Part	-4382
во	-4383
▁labels	-4384
number	-4385
▁prices	-4386
▁mathematical	-4387
Cont	-4388
▁largest	-4389
▁ann	-4390
▁und	-4391
App	-4392
▁Linux	-4393
▁Calcul	-4394
▁[1,	-4395
▁meets	-4396
▁["	-4397
lement	-4398
▁seed	-4399
azon	-4400
▁Sum	-4401
▁broad	-4402
▁far	-4403
▁partners	-4404
rist	-4405
▁smoke	-4406
▁pet	-4407
▁atmosp	-4408
▁capacity	-4409
igation	-4410
PS	-4411
▁soil	-4412
Qu	-4413
▁strive	-4414
ey	-4415
▁containing	-4416
▁prefer	-4417
▁months	-4418
lines	-4419
▁phr	-4420
icon	-4421
▁Red	-4422
▁Build	-4423
▁snipp	-4424
▁boy	-4425
▁CS	-4426
▁consciousness	-4427
▁hol	-4428
▁wall	-4429
result	-4430
▁keywords	-4431
folio	-4432
▁wa	-4433
bi	-4434
▁employee	-4435
▁->	-4436
▁beyond	-4437
▁ye	-4438
▁hes	-4439
▁optimize	-4440
iding	-4441
▁effectiveness	-4442
▁movement	-4443
▁__	-4444
resh	-4445
ership	-4446
▁surv	-4447
▁dele	-4448
html	-4449
▁fru	-4450
▁Health	-4451
▁Stud	-4452
▁font	-4453
▁moral	-4454
▁seeking	-4455
▁tokens	-4456
ha	-4457
alf	-4458
stood	-4459
▁advance	-4460
table	-4461
▁confident	-4462
mb	-4463
cribe	-4464
▁influenc	-4465
▁sus	-4466
▁divid	-4467
▁piece	-4468
mp	-4469
agement	-4470
▁sodium	-4471
ifier	-4472
▁ult	-4473
year	-4474
▁seems	-4475
▁AWS	-4476
▁cv	-4477
ocument	-4478
▁alloc	-4479
▁effort	-4480
score	-4481
';	-4482
opt	-4483
▁Cho	-4484
ians	-4485
▁logic	-4486
▁downstream	-4487
▁ч	-4488
▁revenue	-4489
▁estim	-4490
▁mixture	-4491
▁chlor	-4492
PC	-4493
▁restrict	-4494
▁reality	-4495
comfort	-4496
▁restaur	-4497
▁synthes	-4498
▁passion	-4499
▁+=	-4500
▁float	-4501
▁Certain	-4502
().	-4503
oun	-4504
▁favor	-4505
▁relatively	-4506
oot	-4507
▁appearance	-4508
ipped	-4509
▁internal	-4510
▁не	-4511
▁improvement	-4512
▁Stay	-4513
▁license	-4514
▁manufacturer	-4515
▁battery	-4516
tun	-4517
▁container	-4518
▁0.0	-4519
▁Sim	-4520
▁checks	-4521
map	-4522
▁considering	-4523
66	-4524
▁resource	-4525
▁construction	-4526
stances	-4527
▁scal	-4528
▁browser	-4529
rm	-4530
▁Vis	-4531
True	-4532
▁jud	-4533
▁structures	-4534
▁Also	-4535
▁stable	-4536
▁goods	-4537
pack	-4538
▁door	-4539
▁High	-4540
length	-4541
▁helping	-4542
▁letters	-4543
▁12.	-4544
▁clothing	-4545
▁diagn	-4546
▁1-	-4547
▁led	-4548
▁ca	-4549
▁specialized	-4550
▁3:	-4551
▁fat	-4552
▁pretend	-4553
▁sil	-4554
query	-4555
ightly	-4556
▁wild	-4557
▁IS	-4558
raint	-4559
▁binary	-4560
▁maintenance	-4561
chemical	-4562
▁operator	-4563
▁ingredients	-4564
ер	-4565
▁hyd	-4566
▁described	-4567
roller	-4568
hood	-4569
▁grid	-4570
▁wanted	-4571
rupt	-4572
▁degree	-4573
▁functionality	-4574
apon	-4575
▁teach	-4576
ned	-4577
▁included	-4578
▁implementing	-4579
NN	-4580
SYS	-4581
";	-4582
omen	-4583
▁Det	-4584
▁florida	-4585
▁assets	-4586
▁chem	-4587
▁selected	-4588
▁solvent	-4589
base	-4590
amin	-4591
▁May	-4592
▁journey	-4593
▁queries	-4594
ename	-4595
icides	-4596
▁chick	-4597
▁collection	-4598
▁conversations	-4599
▁Ext	-4600
▁contents	-4601
▁site	-4602
▁received	-4603
Ar	-4604
pite	-4605
▁efforts	-4606
▁Process	-4607
itution	-4608
uting	-4609
part	-4610
▁intent	-4611
tics	-4612
▁syntax	-4613
▁tables	-4614
servation	-4615
▁early	-4616
ль	-4617
▁eating	-4618
luor	-4619
▁looks	-4620
▁recur	-4621
step	-4622
▁ign	-4623
▁mount	-4624
otic	-4625
▁reading	-4626
▁driver	-4627
wh	-4628
▁breast	-4629
▁Spe	-4630
gn	-4631
ffee	-4632
▁brief	-4633
istry	-4634
▁]	-4635
uit	-4636
▁personalized	-4637
▁tk	-4638
▁acad	-4639
odies	-4640
▁fundam	-4641
▁outcomes	-4642
▁['	-4643
▁soon	-4644
▁switch	-4645
pace	-4646
▁missing	-4647
▁linear	-4648
▁False	-4649
▁recognition	-4650
}}	-4651
3)	-4652
▁places	-4653
▁Find	-4654
class	-4655
aign	-4656
itro	-4657
ync	-4658
▁metal	-4659
IF	-4660
ти	-4661
▁None	-4662
▁giving	-4663
idate	-4664
да	-4665
▁push	-4666
▁forest	-4667
▁challenge	-4668
ball	-4669
cles	-4670
making	-4671
eli	-4672
▁aw	-4673
icks	-4674
▁alternative	-4675
▁computing	-4676
atically	-4677
][	-4678
LMSYS	-4679
▁phrases	-4680
▁solid	-4681
trained	-4682
onom	-4683
▁portfolio	-4684
▁я	-4685
known	-4686
▁books	-4687
▁ongoing	-4688
▁map	-4689
▁cluster	-4690
ony	-4691
▁adult	-4692
inner	-4693
▁nothing	-4694
▁navigate	-4695
main	-4696
▁tru	-4697
▁indicates	-4698
anges	-4699
▁party	-4700
house	-4701
▁experiment	-4702
iring	-4703
▁serve	-4704
▁Sm	-4705
bor	-4706
▁hi	-4707
,000	-4708
▁mer	-4709
▁minimum	-4710
ethical	-4711
https	-4712
inates	-4713
та	-4714
pected	-4715
▁circumstances	-4716
▁comment	-4717
▁0)	-4718
▁teac	-4719
▁creation	-4720
▁Try	-4721
px	-4722
())	-4723
Type	-4724
▁vision	-4725
rochemical	-4726
▁becomes	-4727
▁reward	-4728
▁meeting	-4729
fil	-4730
▁den	-4731
message	-4732
▁SELECT	-4733
▁Certainly	-4734
TH	-4735
▁Sub	-4736
▁sharing	-4737
▁benefit	-4738
ynt	-4739
Date	-4740
ERE	-4741
▁electrical	-4742
▁purchase	-4743
We	-4744
▁exactly	-4745
DA	-4746
');	-4747
MM	-4748
▁unethical	-4749
▁appreciate	-4750
▁dream	-4751
▁developer	-4752
ULL	-4753
▁Web	-4754
friendly	-4755
isk	-4756
▁obser	-4757
▁seconds	-4758
▁attribute	-4759
etry	-4760
▁static	-4761
▁starts	-4762
▁stability	-4763
▁chart	-4764
ttp	-4765
▁Identify	-4766
File	-4767
▁stri	-4768
▁encount	-4769
▁schedule	-4770
ING	-4771
▁estimate	-4772
▁6-	-4773
▁neutral	-4774
LO	-4775
-5-	-4776
▁Day	-4777
▁carried	-4778
ictional	-4779
▁dynamic	-4780
Sh	-4781
▁TH	-4782
▁stakeholders	-4783
iang	-4784
bre	-4785
▁Example	-4786
▁semantic	-4787
ured	-4788
▁Tw	-4789
▁у	-4790
UN	-4791
▁smooth	-4792
ying	-4793
▁exploring	-4794
▁comments	-4795
error	-4796
▁administ	-4797
▁medication	-4798
ци	-4799
▁Load	-4800
edi	-4801
▁subjective	-4802
▁gather	-4803
▁listen	-4804
:\	-4805
dev	-4806
▁Whe	-4807
▁agricult	-4808
▁concent	-4809
porate	-4810
▁OpenAI	-4811
▁talking	-4812
▁advantage	-4813
Py	-4814
▁anxiety	-4815
0)	-4816
▁Art	-4817
olving	-4818
cohol	-4819
▁Netw	-4820
▁Amazon	-4821
▁approximately	-4822
▁consumption	-4823
▁Av	-4824
▁snippet	-4825
▁numpy	-4826
▁articles	-4827
▁protein	-4828
▁continues	-4829
cc	-4830
▁advent	-4831
▁transactions	-4832
As	-4833
under	-4834
▁conv	-4835
▁desires	-4836
anch	-4837
▁assume	-4838
fl	-4839
iter	-4840
ny	-4841
▁pun	-4842
celer	-4843
▁criteria	-4844
▁pygame	-4845
uate	-4846
▁за	-4847
▁extend	-4848
▁23	-4849
▁Sw	-4850
▁categories	-4851
inct	-4852
▁rot	-4853
▁Type	-4854
▁assessment	-4855
▁plants	-4856
world	-4857
▁Cor	-4858
▁Par	-4859
▁delivery	-4860
std	-4861
ester	-4862
uff	-4863
▁computers	-4864
":"	-4865
▁flexible	-4866
▁legs	-4867
▁master	-4868
▁exchange	-4869
65	-4870
▁fictional	-4871
abet	-4872
▁menu	-4873
▁vast	-4874
▁wave	-4875
gener	-4876
▁apples	-4877
▁particles	-4878
▁Of	-4879
▁sav	-4880
▁clin	-4881
▁tend	-4882
apter	-4883
▁perspectives	-4884
▁ten	-4885
▁magn	-4886
▁Market	-4887
▁prepar	-4888
oline	-4889
▁gives	-4890
IST	-4891
▁colle	-4892
ups	-4893
▁dyes	-4894
atures	-4895
▁IP	-4896
▁null	-4897
▁movie	-4898
▁Prom	-4899
▁Choose	-4900
▁22	-4901
▁initi	-4902
▁atmosphere	-4903
▁song	-4904
▁zero	-4905
▁remind	-4906
fra	-4907
▁verify	-4908
▁versatile	-4909
▁pick	-4910
▁retrieve	-4911
elcome	-4912
Im	-4913
▁hash	-4914
▁attacks	-4915
standing	-4916
▁objectives	-4917
▁[]	-4918
▁efficiently	-4919
quin	-4920
▁hidden	-4921
▁wire	-4922
ла	-4923
▁blog	-4924
▁analyzing	-4925
▁secret	-4926
script	-4927
▁mit	-4928
▁beauty	-4929
arg	-4930
▁bus	-4931
▁confirm	-4932
▁degrees	-4933
▁learned	-4934
▁Ab	-4935
▁Mod	-4936
dri	-4937
nel	-4938
▁Read	-4939
▁glass	-4940
avas	-4941
▁Inter	-4942
▁split	-4943
▁про	-4944
▁parties	-4945
▁unc	-4946
▁weapon	-4947
utor	-4948
▁personality	-4949
▁isol	-4950
▁Have	-4951
▁Research	-4952
▁poem	-4953
▁career	-4954
most	-4955
style	-4956
▁classes	-4957
▁ow	-4958
romo	-4959
cular	-4960
▁(2	-4961
▁hab	-4962
▁figure	-4963
iling	-4964
RA	-4965
ibly	-4966
▁AND	-4967
▁birth	-4968
▁achieved	-4969
▁Management	-4970
▁affected	-4971
▁optimization	-4972
▁trou	-4973
▁2)	-4974
avascript	-4975
▁extra	-4976
▁calculated	-4977
pload	-4978
оль	-4979
▁filled	-4980
▁Fl	-4981
▁later	-4982
len	-4983
▁struggling	-4984
▁discrimination	-4985
▁alt	-4986
▁supports	-4987
▁Lim	-4988
▁outcome	-4989
▁violence	-4990
▁expectations	-4991
max	-4992
▁Design	-4993
case	-4994
▁hyper	-4995
▁noise	-4996
bin	-4997
75	-4998
Time	-4999
▁objective	-5000
arp	-5001
▁extremely	-5002
▁prepared	-5003
example	-5004
active	-5005
▁middle	-5006
▁treated	-5007
acing	-5008
▁deal	-5009
▁doctor	-5010
itory	-5011
EM	-5012
oder	-5013
▁cond	-5014
▁submit	-5015
▁saying	-5016
▁academic	-5017
connect	-5018
....	-5019
▁Microsoft	-5020
column	-5021
LT	-5022
Value	-5023
▁liter	-5024
▁therapy	-5025
▁Code	-5026
▁selection	-5027
FT	-5028
▁evaluation	-5029
▁80	-5030
▁contro	-5031
▁strict	-5032
aks	-5033
ban	-5034
▁org	-5035
▁Cre	-5036
▁teams	-5037
hou	-5038
azine	-5039
object	-5040
▁identifying	-5041
▁lost	-5042
▁kill	-5043
UT	-5044
▁bon	-5045
▁coffee	-5046
▁fish	-5047
ada	-5048
ls	-5049
▁hurt	-5050
▁angle	-5051
phone	-5052
▁Transform	-5053
▁har	-5054
VID	-5055
▁syn	-5056
▁interf	-5057
ref	-5058
split	-5059
▁freed	-5060
▁military	-5061
aming	-5062
▁strengths	-5063
▁transp	-5064
▁Pol	-5065
▁nuclear	-5066
idents	-5067
▁liquid	-5068
▁carry	-5069
▁wee	-5070
▁Great	-5071
▁confidence	-5072
▁round	-5073
▁ec	-5074
▁pub	-5075
▁datetime	-5076
▁divide	-5077
▁pu	-5078
▁cred	-5079
▁rub	-5080
▁matches	-5081
▁Met	-5082
▁finance	-5083
▁integers	-5084
▁Time	-5085
▁ment	-5086
▁planet	-5087
▁consent	-5088
▁mindful	-5089
▁spir	-5090
Res	-5091
ру	-5092
rig	-5093
▁channel	-5094
▁counter	-5095
▁thor	-5096
▁prints	-5097
▁cit	-5098
▁baby	-5099
show	-5100
ivil	-5101
▁repair	-5102
PA	-5103
▁rich	-5104
▁veget	-5105
yles	-5106
▁diseases	-5107
atus	-5108
api	-5109
▁trig	-5110
▁advert	-5111
▁definition	-5112
▁Okay	-5113
▁friendly	-5114
▁ri	-5115
▁hate	-5116
Model	-5117
ercial	-5118
/20	-5119
▁regarding	-5120
▁13.	-5121
alle	-5122
ancy	-5123
▁modified	-5124
onic	-5125
▁bur	-5126
▁translate	-5127
****	-5128
▁holding	-5129
▁necessarily	-5130
ilos	-5131
▁upon	-5132
▁Human	-5133
By	-5134
▁bottom	-5135
▁sorted	-5136
▁entities	-5137
ections	-5138
▁Business	-5139
^^^^	-5140
IA	-5141
.</	-5142
This	-5143
]:	-5144
▁mouth	-5145
▁{'	-5146
ryption	-5147
unt	-5148
▁math	-5149
▁Whether	-5150
▁driving	-5151
▁continued	-5152
overy	-5153
▁});	-5154
▁completed	-5155
▁excellent	-5156
▁approaches	-5157
▁compliance	-5158
▁indicating	-5159
▁alone	-5160
roduction	-5161
▁describes	-5162
▁behaviors	-5163
▁bright	-5164
ло	-5165
▁automatically	-5166
boxy	-5167
де	-5168
▁Calculate	-5169
▁advantages	-5170
▁PC	-5171
ormal	-5172
▁rapid	-5173
▁conflict	-5174
▁units	-5175
▁ال	-5176
▁uns	-5177
▁trees	-5178
▁28	-5179
rome	-5180
▁dot	-5181
from	-5182
sec	-5183
more	-5184
▁rewrite	-5185
open	-5186
asy	-5187
▁cryst	-5188
stract	-5189
▁6,	-5190
▁extension	-5191
мо	-5192
▁campaign	-5193
My	-5194
▁session	-5195
▁performed	-5196
▁stands	-5197
DO	-5198
▁thread	-5199
▁Acc	-5200
▁вы	-5201
48	-5202
▁formation	-5203
▁Commun	-5204
▁mission	-5205
▁stim	-5206
User	-5207
▁compar	-5208
▁metrics	-5209
▁TV	-5210
HT	-5211
arter	-5212
nic	-5213
weight	-5214
▁staff	-5215
▁slightly	-5216
▁calls	-5217
▁Po	-5218
▁kiss	-5219
▁q	-5220
▁Bi	-5221
▁500	-5222
▁availability	-5223
ably	-5224
shine	-5225
umin	-5226
chloro	-5227
▁21	-5228
▁immediately	-5229
▁Af	-5230
▁severe	-5231
ov	-5232
▁elim	-5233
▁Both	-5234
▁rac	-5235
▁Its	-5236
▁careful	-5237
▁experts	-5238
itial	-5239
Int	-5240
▁visit	-5241
▁mistake	-5242
▁Mus	-5243
▁skill	-5244
▁collaboration	-5245
▁Well	-5246
▁ahead	-5247
▁NULL	-5248
▁electronic	-5249
▁historical	-5250
▁meaningful	-5251
▁fundamental	-5252
▁hom	-5253
▁connections	-5254
▁Train	-5255
nings	-5256
▁Social	-5257
▁CPU	-5258
etimes	-5259
▁deriv	-5260
boxylic	-5261
▁standing	-5262
▁trip	-5263
▁foreign	-5264
css	-5265
▁stage	-5266
char	-5267
▁official	-5268
▁Language	-5269
▁routes	-5270
▁functional	-5271
▁profit	-5272
▁fear	-5273
▁tour	-5274
ands	-5275
LA	-5276
where	-5277
inst	-5278
▁implications	-5279
▁executed	-5280
▁graphics	-5281
View	-5282
forcement	-5283
▁floor	-5284
▁investing	-5285
ма	-5286
▁roles	-5287
▁tow	-5288
Ind	-5289
▁central	-5290
random	-5291
orders	-5292
▁"""	-5293
▁penis	-5294
cond	-5295
▁hesitate	-5296
▁NOT	-5297
lication	-5298
▁sometimes	-5299
ogen	-5300
▁passed	-5301
▁э	-5302
▁checking	-5303
quire	-5304
4)	-5305
sis	-5306
▁scope	-5307
▁Implement	-5308
asm	-5309
▁constraint	-5310
▁ble	-5311
pi	-5312
▁Where	-5313
clusion	-5314
▁defines	-5315
▁producing	-5316
▁Aust	-5317
▁stra	-5318
hips	-5319
▁Disc	-5320
▁Plan	-5321
direct	-5322
▁compat	-5323
▁reasoning	-5324
bash	-5325
▁bodies	-5326
▁positions	-5327
solute	-5328
▁dialogue	-5329
product	-5330
▁sky	-5331
▁interview	-5332
▁shad	-5333
▁Company	-5334
▁thick	-5335
▁opinion	-5336
▁enem	-5337
IP	-5338
(0,	-5339
CP	-5340
TE	-5341
istical	-5342
▁thorough	-5343
▁spaces	-5344
▁hit	-5345
▁Play	-5346
▁integration	-5347
▁State	-5348
▁philos	-5349
pred	-5350
ypes	-5351
▁reports	-5352
compl	-5353
▁significantly	-5354
▁AD	-5355
▁prepare	-5356
org	-5357
pus	-5358
▁South	-5359
aked	-5360
bb	-5361
▁generates	-5362
▁Pe	-5363
▁locations	-5364
▁fixed	-5365
▁Does	-5366
▁impacts	-5367
▁muscle	-5368
▁leader	-5369
▁closely	-5370
▁reduction	-5371
▁interaction	-5372
▁70	-5373
vis	-5374
used	-5375
▁medications	-5376
▁Invest	-5377
▁ine	-5378
▁glad	-5379
www	-5380
▁machines	-5381
▁Select	-5382
▁loan	-5383
▁PDF	-5384
▁ES	-5385
\\	-5386
ils	-5387
lation	-5388
current	-5389
rc	-5390
coin	-5391
▁subt	-5392
▁echo	-5393
▁difficulty	-5394
▁85,	-5395
▁dead	-5396
▁poll	-5397
▁excited	-5398
anol	-5399
▁join	-5400
▁hydrogen	-5401
unk	-5402
▁respectively	-5403
▁bact	-5404
▁reag	-5405
▁pig	-5406
▁half	-5407
sm	-5408
▁regularly	-5409
▁^	-5410
ylp	-5411
▁basis	-5412
▁competitive	-5413
▁tab	-5414
▁performing	-5415
▁roleplay	-5416
sql	-5417
▁mid	-5418
▁Att	-5419
ativity	-5420
▁fuel	-5421
▁fight	-5422
▁rock	-5423
▁office	-5424
▁chicken	-5425
▁neigh	-5426
▁32	-5427
сп	-5428
-01	-5429
▁10,	-5430
▁transmit	-5431
▁fant	-5432
▁Comput	-5433
ocur	-5434
▁operate	-5435
▁picture	-5436
Button	-5437
▁vibr	-5438
▁motor	-5439
▁becoming	-5440
▁drop	-5441
▁Fr	-5442
UM	-5443
▁occ	-5444
▁sugar	-5445
▁sports	-5446
RL	-5447
ided	-5448
▁wonder	-5449
▁earlier	-5450
▁15.	-5451
pow	-5452
▁ice	-5453
rench	-5454
▁sheet	-5455
▁resolve	-5456
▁weights	-5457
▁Show	-5458
▁7,	-5459
vents	-5460
find	-5461
▁len	-5462
Label	-5463
othes	-5464
▁therm	-5465
▁pull	-5466
▁CSV	-5467
SQL	-5468
▁rad	-5469
osite	-5470
rometry	-5471
▁45	-5472
▁fing	-5473
▁cold	-5474
For	-5475
achine	-5476
▁depth	-5477
ся	-5478
Size	-5479
▁charge	-5480
▁catch	-5481
▁regist	-5482
rt	-5483
▁attend	-5484
▁coming	-5485
ugin	-5486
▁Dec	-5487
▁incom	-5488
▁released	-5489
▁reliability	-5490
ле	-5491
prise	-5492
vised	-5493
▁layout	-5494
▁According	-5495
tra	-5496
CE	-5497
miss	-5498
writ	-5499
▁datasets	-5500
▁comply	-5501
DB	-5502
▁sand	-5503
▁pieces	-5504
ios	-5505
▁ter	-5506
rem	-5507
icip	-5508
Sc	-5509
ta	-5510
▁factually	-5511
▁environments	-5512
quis	-5513
▁14.	-5514
▁resolution	-5515
▁clo	-5516
▁Post	-5517
astics	-5518
▁Gu	-5519
▁Kore	-5520
▁Learning	-5521
▁referring	-5522
avy	-5523
pet	-5524
ecause	-5525
Get	-5526
▁salt	-5527
▁beginning	-5528
▁late	-5529
▁sweet	-5530
▁commercial	-5531
▁agrochemical	-5532
▁Sing	-5533
55	-5534
▁took	-5535
▁dataframe	-5536
Yes	-5537
▁equipped	-5538
▁occurs	-5539
▁substance	-5540
▁layers	-5541
▁Many	-5542
▁explo	-5543
▁circle	-5544
▁bomb	-5545
▁explos	-5546
▁God	-5547
▁founded	-5548
▁happiness	-5549
▁Pract	-5550
▁summarize	-5551
▁tu	-5552
▁practical	-5553
▁nodes	-5554
▁son	-5555
ository	-5556
▁rating	-5557
▁records	-5558
▁represented	-5559
▁Group	-5560
▁spend	-5561
▁invent	-5562
que	-5563
▁Technology	-5564
ognitive	-5565
hyd	-5566
▁Ant	-5567
▁cultures	-5568
▁stories	-5569
String	-5570
▁Impro	-5571
UI	-5572
host	-5573
▁8,	-5574
▁Hey	-5575
▁Customer	-5576
search	-5577
▁thank	-5578
▁overview	-5579
▁wants	-5580
▁facility	-5581
▁ideal	-5582
▁regulatory	-5583
▁estate	-5584
ка	-5585
run	-5586
▁template	-5587
▁II	-5588
▁Look	-5589
▁medium	-5590
▁offering	-5591
osen	-5592
▁Option	-5593
renewable	-5594
▁alcohol	-5595
▁truth	-5596
▁separated	-5597
pat	-5598
ensional	-5599
▁influenced	-5600
▁т	-5601
▁markets	-5602
▁destination	-5603
▁Chemicals	-5604
ми	-5605
▁multipl	-5606
ви	-5607
mation	-5608
fe	-5609
hel	-5610
oration	-5611
▁rom	-5612
▁farm	-5613
ius	-5614
▁outline	-5615
▁specializes	-5616
▁pix	-5617
XX	-5618
▁joint	-5619
ernel	-5620
YY	-5621
aph	-5622
ollow	-5623
▁feels	-5624
▁upper	-5625
▁decide	-5626
▁adventure	-5627
▁Cent	-5628
▁favorite	-5629
▁emissions	-5630
▁taste	-5631
DP	-5632
▁autonom	-5633
▁descriptions	-5634
▁lists	-5635
▁201	-5636
etch	-5637
▁reve	-5638
▁WHERE	-5639
▁Contin	-5640
hand	-5641
▁SS	-5642
▁signals	-5643
▁National	-5644
▁accessible	-5645
▁magic	-5646
▁exception	-5647
itute	-5648
ridge	-5649
pyrid	-5650
▁alph	-5651
person	-5652
▁snake	-5653
bu	-5654
▁bath	-5655
▁gold	-5656
▁notice	-5657
▁controlled	-5658
formance	-5659
▁cleaning	-5660
▁reph	-5661
▁Engine	-5662
oss	-5663
▁circuit	-5664
▁purification	-5665
▁ра	-5666
lock	-5667
ief	-5668
▁acceler	-5669
▁keyword	-5670
▁supported	-5671
▁highlight	-5672
["	-5673
▁yield	-5674
---	-5675
▁competition	-5676
▁Saf	-5677
arant	-5678
efore	-5679
▁clinical	-5680
▁tag	-5681
▁meant	-5682
▁DE	-5683
▁Work	-5684
▁cm	-5685
++)	-5686
▁Because	-5687
Item	-5688
({	-5689
ideo	-5690
▁esc	-5691
▁speaker	-5692
nam	-5693
▁physics	-5694
ien	-5695
▁remaining	-5696
amino	-5697
▁Image	-5698
▁International	-5699
▁LLMs	-5700
▁coordinates	-5701
▁sides	-5702
erse	-5703
▁Qual	-5704
▁Diff	-5705
▁pros	-5706
▁drink	-5707
▁intention	-5708
▁rob	-5709
▁clothes	-5710
▁reduced	-5711
▁independent	-5712
nal	-5713
▁Analy	-5714
▁scientists	-5715
▁Sent	-5716
▁servers	-5717
left	-5718
▁edge	-5719
▁expensive	-5720
▁nice	-5721
▁Afric	-5722
acet	-5723
ker	-5724
rab	-5725
▁accounts	-5726
what	-5727
State	-5728
▁interactive	-5729
▁lapt	-5730
content	-5731
FF	-5732
▁controls	-5733
▁exciting	-5734
▁virus	-5735
▁surrounding	-5736
ulations	-5737
35	-5738
▁mm	-5739
folder	-5740
nesses	-5741
▁selling	-5742
38	-5743
▁existence	-5744
▁girlfriend	-5745
▁convey	-5746
▁distinct	-5747
▁mill	-5748
duction	-5749
▁phase	-5750
(1,	-5751
▁Inf	-5752
▁restaurant	-5753
ums	-5754
atever	-5755
▁entry	-5756
Un	-5757
ui	-5758
urs	-5759
▁encryption	-5760
▁Run	-5761
▁closed	-5762
▁chance	-5763
▁Sun	-5764
▁says	-5765
▁sulf	-5766
▁modeling	-5767
▁Ref	-5768
oded	-5769
▁pest	-5770
heet	-5771
▁respir	-5772
▁coherent	-5773
▁yellow	-5774
▁phen	-5775
▁analytics	-5776
▁belong	-5777
▁investments	-5778
▁2022	-5779
▁tick	-5780
idential	-5781
28	-5782
▁Ent	-5783
▁rein	-5784
iments	-5785
▁Face	-5786
▁suit	-5787
▁Key	-5788
config	-5789
▁City	-5790
values	-5791
▁AM	-5792
▁};	-5793
▁antib	-5794
benz	-5795
▁prem	-5796
▁uncertain	-5797
flo	-5798
▁1/	-5799
▁rise	-5800
ley	-5801
▁gradu	-5802
▁Return	-5803
udio	-5804
▁identified	-5805
▁transmission	-5806
▁adds	-5807
▁File	-5808
▁pound	-5809
mary	-5810
page	-5811
INE	-5812
▁park	-5813
eper	-5814
▁Synt	-5815
ugging	-5816
▁grammar	-5817
▁mechanism	-5818
▁obst	-5819
▁enabled	-5820
Object	-5821
▁therap	-5822
ко	-5823
▁freedom	-5824
▁attributes	-5825
pathy	-5826
▁Cloud	-5827
▁hydrochlor	-5828
const	-5829
alysis	-5830
▁Austral	-5831
▁parents	-5832
▁medic	-5833
sive	-5834
▁via	-5835
▁triangle	-5836
▁billion	-5837
▁morning	-5838
▁Describe	-5839
▁relative	-5840
▁plastic	-5841
▁asset	-5842
▁React	-5843
ibonacci	-5844
-6-	-5845
esh	-5846
▁mel	-5847
▁representing	-5848
▁began	-5849
Is	-5850
▁except	-5851
▁produces	-5852
real	-5853
▁profile	-5854
life	-5855
▁absor	-5856
▁plays	-5857
▁cars	-5858
Add	-5859
▁awareness	-5860
▁intermedi	-5861
ffective	-5862
▁segment	-5863
▁converted	-5864
CC	-5865
plotlib	-5866
▁diversity	-5867
▁dimensions	-5868
gon	-5869
author	-5870
rated	-5871
▁Tem	-5872
AAAA	-5873
ifying	-5874
▁resistance	-5875
▁corpus	-5876
▁cris	-5877
▁civil	-5878
▁quite	-5879
▁citiz	-5880
▁stere	-5881
▁changed	-5882
▁kit	-5883
▁mac	-5884
Key	-5885
▁closer	-5886
▁accompl	-5887
ception	-5888
▁band	-5889
group	-5890
▁proceed	-5891
ponent	-5892
▁domin	-5893
▁milk	-5894
▁Despite	-5895
▁helped	-5896
▁00	-5897
rous	-5898
▁Bit	-5899
power	-5900
▁findings	-5901
▁failure	-5902
▁removed	-5903
▁validate	-5904
▁remains	-5905
carboxylic	-5906
▁grown	-5907
▁torch	-5908
Element	-5909
▁teacher	-5910
▁continuous	-5911
IV	-5912
option	-5913
cean	-5914
▁Altern	-5915
▁humidity	-5916
▁eggs	-5917
▁muscles	-5918
lab	-5919
ameter	-5920
▁<=	-5921
▁Incre	-5922
▁Pri	-5923
▁об	-5924
▁wife	-5925
''	-5926
bar	-5927
erce	-5928
spec	-5929
▁Enc	-5930
▁Down	-5931
▁national	-5932
▁engagement	-5933
▁OR	-5934
▁ai	-5935
this	-5936
pyridine	-5937
▁vehicles	-5938
▁retail	-5939
▁modules	-5940
▁emergency	-5941
▁simulate	-5942
▁authentication	-5943
зо	-5944
00000000	-5945
▁spirit	-5946
▁export	-5947
▁held	-5948
▁tele	-5949
▁upstream	-5950
▁LL	-5951
▁exists	-5952
▁otherwise	-5953
▁visible	-5954
▁cash	-5955
▁truly	-5956
▁transaction	-5957
▁wet	-5958
▁foods	-5959
▁agreement	-5960
▁Class	-5961
▁styles	-5962
-13	-5963
▁bag	-5964
▁raise	-5965
▁packages	-5966
egr	-5967
▁90	-5968
▁Department	-5969
YL	-5970
2023	-5971
ued	-5972
-1-	-5973
▁Date	-5974
▁Security	-5975
▁inclusive	-5976
▁assigned	-5977
ows	-5978
[1]	-5979
▁straight	-5980
db	-5981
▁Information	-5982
▁shell	-5983
-1,	-5984
▁Action	-5985
ressive	-5986
dec	-5987
▁cryptocur	-5988
▁fresh	-5989
▁sed	-5990
cules	-5991
▁что	-5992
rs	-5993
ulated	-5994
▁overcome	-5995
▁attractive	-5996
NS	-5997
pm	-5998
VAC	-5999
OL	-6000
▁anc	-6001
▁Dear	-6002
uries	-6003
gu	-6004
▁genetic	-6005
▁American	-6006
▁chrom	-6007
▁runs	-6008
▁lock	-6009
orking	-6010
▁laboratory	-6011
▁Form	-6012
▁inner	-6013
create	-6014
▁Japanese	-6015
▁During	-6016
anks	-6017
▁biases	-6018
▁cognitive	-6019
▁Eval	-6020
▁landsc	-6021
▁manipulate	-6022
▁doll	-6023
respect	-6024
iny	-6025
▁saw	-6026
▁verb	-6027
mers	-6028
▁Initial	-6029
▁joy	-6030
"}	-6031
▁photo	-6032
ivalent	-6033
▁motion	-6034
▁Ser	-6035
▁jobs	-6036
▁Object	-6037
iver	-6038
▁focusing	-6039
De	-6040
▁chest	-6041
can	-6042
▁sensors	-6043
▁candidate	-6044
▁nur	-6045
▁societ	-6046
▁reporting	-6047
▁со	-6048
join	-6049
▁scan	-6050
▁combined	-6051
ashion	-6052
▁Her	-6053
▁0.5	-6054
▁sad	-6055
event	-6056
▁tags	-6057
▁hazard	-6058
”,	-6059
description	-6060
▁fluid	-6061
craft	-6062
▁paid	-6063
▁26	-6064
itutions	-6065
scale	-6066
▁Exper	-6067
▁stocks	-6068
▁repository	-6069
icking	-6070
▁4:	-6071
0,000	-6072
78	-6073
▁inflam	-6074
▁agrochemicals	-6075
utive	-6076
▁для	-6077
▁dependencies	-6078
pire	-6079
▁kil	-6080
▁courses	-6081
▁vel	-6082
plete	-6083
▁earth	-6084
▁Ob	-6085
▁rent	-6086
▁regions	-6087
dimensional	-6088
▁Science	-6089
▁digits	-6090
itivity	-6091
▁views	-6092
▁mistakes	-6093
▁2021,	-6094
▁owner	-6095
xx	-6096
▁upload	-6097
▁consideration	-6098
iced	-6099
itely	-6100
▁applying	-6101
··	-6102
▁sole	-6103
▁HVAC	-6104
▁limits	-6105
▁CSS	-6106
▁Git	-6107
21	-6108
▁covers	-6109
▁stores	-6110
▁duration	-6111
▁expenses	-6112
▁density	-6113
aaaa	-6114
reet	-6115
▁facing	-6116
cursor	-6117
▁ON	-6118
▁Main	-6119
▁Service	-6120
▁constraints	-6121
=1	-6122
▁quiet	-6123
-8	-6124
draw	-6125
▁iterate	-6126
▁plastics	-6127
works	-6128
token	-6129
▁1;	-6130
▁decl	-6131
urable	-6132
itement	-6133
▁pool	-6134
▁decrease	-6135
-10	-6136
▁arms	-6137
▁went	-6138
▁suicide	-6139
.",	-6140
▁quot	-6141
▁https	-6142
▁purity	-6143
▁obtained	-6144
amide	-6145
ronic	-6146
▁instr	-6147
▁mood	-6148
▁Network	-6149
▁onto	-6150
▁atom	-6151
▁achieving	-6152
CD	-6153
ato	-6154
▁cock	-6155
anging	-6156
▁emotion	-6157
ры	-6158
cat	-6159
▁cro	-6160
grade	-6161
▁net	-6162
atur	-6163
vironment	-6164
▁engineer	-6165
iler	-6166
▁molecules	-6167
▁rect	-6168
▁Est	-6169
▁NLP	-6170
▁Pay	-6171
▁cards	-6172
▁ва	-6173
▁tall	-6174
eled	-6175
▁agents	-6176
68	-6177
ugh	-6178
▁firm	-6179
▁optimal	-6180
\_\_\_\_\_\_\_\_	-6181
▁arm	-6182
▁heavy	-6183
xid	-6184
▁statistical	-6185
▁keeping	-6186
▁quarter	-6187
▁filtering	-6188
irty	-6189
▁scenarios	-6190
Path	-6191
inations	-6192
▁mountain	-6193
ographic	-6194
▁specifies	-6195
axis	-6196
format	-6197
▁excess	-6198
▁applicable	-6199
▁told	-6200
▁abstract	-6201
▁determining	-6202
▁Any	-6203
ressed	-6204
▁contrast	-6205
0.0	-6206
▁conven	-6207
▁walking	-6208
▁grav	-6209
▁entertain	-6210
▁passing	-6211
▁dispos	-6212
▁advertising	-6213
200	-6214
▁pad	-6215
▁diagram	-6216
EY	-6217
sort	-6218
▁opposite	-6219
zhou	-6220
▁purified	-6221
▁leads	-6222
▁proposed	-6223
ira	-6224
ocity	-6225
pg	-6226
▁Az	-6227
▁16.	-6228
bles	-6229
vention	-6230
▁justice	-6231
iop	-6232
▁movements	-6233
▁sufficient	-6234
▁calculation	-6235
▁excitement	-6236
tuning	-6237
▁spending	-6238
▁recognized	-6239
5%	-6240
▁educational	-6241
▁tempor	-6242
▁finished	-6243
▁mechanisms	-6244
▁plugin	-6245
▁wood	-6246
ica	-6247
ulating	-6248
▁branch	-6249
metics	-6250
ook	-6251
▁productivity	-6252
nsel	-6253
▁intermediates	-6254
▁stack	-6255
▁Further	-6256
▁Project	-6257
▁impur	-6258
▁characterized	-6259
resent	-6260
lets	-6261
▁tiss	-6262
kend	-6263
▁Avoid	-6264
77	-6265
▁Limited	-6266
▁&&	-6267
ktop	-6268
estamp	-6269
▁wat	-6270
▁notes	-6271
▁lighting	-6272
500	-6273
(),	-6274
itter	-6275
▁acids	-6276
▁buildings	-6277
▁requirement	-6278
▁Introduction	-6279
си	-6280
▁URL	-6281
▁Industry	-6282
▁univers	-6283
▁collected	-6284
▁Manager	-6285
▁sector	-6286
▁die	-6287
▁Sk	-6288
range	-6289
▁reverse	-6290
▁poor	-6291
▁frust	-6292
▁pages	-6293
▁finds	-6294
font	-6295
▁kn	-6296
otics	-6297
agon	-6298
▁preparation	-6299
learn	-6300
▁samples	-6301
▁stereot	-6302
HP	-6303
▁tracking	-6304
▁sto	-6305
▁irrit	-6306
ensation	-6307
▁logical	-6308
equ	-6309
▁kernel	-6310
▁qualified	-6311
▁33	-6312
Class	-6313
▁Context	-6314
▁validation	-6315
▁vit	-6316
▁dogs	-6317
▁reviews	-6318
▁disorder	-6319
args	-6320
metic	-6321
▁ISO	-6322
▁consists	-6323
ения	-6324
▁Count	-6325
▁organized	-6326
▁Russian	-6327
▁Without	-6328
▁humor	-6329
▁engineers	-6330
▁Ro	-6331
▁amb	-6332
numbers	-6333
AG	-6334
▁В	-6335
OST	-6336
▁Building	-6337
▁University	-6338
▁blocks	-6339
▁European	-6340
▁primarily	-6341
door	-6342
▁Air	-6343
▁fed	-6344
▁apple	-6345
▁beneficial	-6346
▁Machine	-6347
ourage	-6348
▁pul	-6349
ем	-6350
izza	-6351
▁protocols	-6352
▁realistic	-6353
▁vulnerabilities	-6354
▁played	-6355
▁season	-6356
▁Development	-6357
ocation	-6358
▁clearly	-6359
▁displayed	-6360
▁debt	-6361
▁restrictions	-6362
▁interpre	-6363
▁creativity	-6364
98	-6365
▁pure	-6366
arian	-6367
▁dign	-6368
▁whatever	-6369
ateful	-6370
▁Min	-6371
▁placed	-6372
▁Response	-6373
▁Connect	-6374
▁synthesized	-6375
\"	-6376
================	-6377
▁lib	-6378
▁hous	-6379
▁phenomen	-6380
▁Safety	-6381
▁cele	-6382
MI	-6383
▁calling	-6384
▁-1	-6385
ABLE	-6386
▁processed	-6387
▁links	-6388
▁Number	-6389
▁leaving	-6390
▁consumer	-6391
▁execution	-6392
▁successfully	-6393
.)	-6394
▁optimized	-6395
▁calculations	-6396
▁installation	-6397
▁cooper	-6398
▁specialty	-6399
allel	-6400
▁hosp	-6401
▁integrated	-6402
▁Practice	-6403
▁cities	-6404
34	-6405
height	-6406
▁Import	-6407
rete	-6408
root	-6409
00-2	-6410
▁transition	-6411
▁malicious	-6412
▁formal	-6413
▁temperatures	-6414
▁!=	-6415
ometry	-6416
agers	-6417
oj	-6418
ocal	-6419
▁selecting	-6420
▁institutions	-6421
qrt	-6422
▁0:	-6423
▁origin	-6424
▁auto	-6425
Widget	-6426
▁advis	-6427
▁meters	-6428
PN	-6429
chat	-6430
▁multip	-6431
▁pairs	-6432
▁demonstrates	-6433
▁regression	-6434
ologist	-6435
▁orders	-6436
▁vict	-6437
Image	-6438
▁sizes	-6439
▁automation	-6440
fall	-6441
▁Update	-6442
▁Convert	-6443
▁understood	-6444
urb	-6445
▁flat	-6446
▁Excel	-6447
chen	-6448
▁discover	-6449
sl	-6450
▁cosmetics	-6451
□□	-6452
▁loved	-6453
▁extensive	-6454
amm	-6455
▁suff	-6456
▁reached	-6457
▁Total	-6458
▁showing	-6459
CR	-6460
▁inse	-6461
▁transformer	-6462
니다	-6463
unc	-6464
▁36	-6465
▁acceptable	-6466
▁dignity	-6467
olved	-6468
▁exposed	-6469
{"	-6470
whel	-6471
▁participant	-6472
Color	-6473
▁came	-6474
expected	-6475
▁Alternatively	-6476
CS	-6477
gative	-6478
▁Before	-6479
▁older	-6480
ifi	-6481
uminum	-6482
cule	-6483
▁funds	-6484
▁Ge	-6485
($	-6486
▁impurities	-6487
▁six	-6488
▁licens	-6489
xygen	-6490
▁luck	-6491
▁prop	-6492
▁cas	-6493
ди	-6494
▁cycle	-6495
▁balanced	-6496
▁20.	-6497
Point	-6498
▁vent	-6499
▁generator	-6500
liers	-6501
▁exceed	-6502
▁Extract	-6503
▁improvements	-6504
▁27	-6505
▁moves	-6506
OM	-6507
▁;	-6508
▁printed	-6509
abol	-6510
gments	-6511
▁robust	-6512
▁Install	-6513
▁skilled	-6514
▁texture	-6515
▁Mult	-6516
▁divided	-6517
hello	-6518
▁mouse	-6519
▁passage	-6520
oman	-6521
▁‘	-6522
▁deeper	-6523
zy	-6524
▁intense	-6525
▁possess	-6526
ipping	-6527
cell	-6528
php	-6529
rip	-6530
+1	-6531
efficient	-6532
band	-6533
gpt	-6534
▁STOP	-6535
Flow	-6536
though	-6537
ened	-6538
eration	-6539
solving	-6540
26	-6541
erve	-6542
▁accordingly	-6543
▁initiatives	-6544
rest	-6545
▁absolute	-6546
yal	-6547
▁processor	-6548
▁chosen	-6549
▁от	-6550
organ	-6551
▁tensor	-6552
▁incorpor	-6553
▁Sol	-6554
▁rain	-6555
▁channels	-6556
comfortable	-6557
▁addressing	-6558
FI	-6559
▁Would	-6560
aser	-6561
▁inh	-6562
tical	-6563
▁orient	-6564
▁currency	-6565
▁exit	-6566
▁vill	-6567
▁assumptions	-6568
▁Sales	-6569
methoxy	-6570
▁kindness	-6571
▁overwhel	-6572
▁vert	-6573
▁digit	-6574
▁tal	-6575
ii	-6576
click	-6577
▁guarant	-6578
ector	-6579
▁html	-6580
▁Determ	-6581
▁moon	-6582
▁wealth	-6583
okes	-6584
points	-6585
response	-6586
▁routine	-6587
▁hex	-6588
▁considerations	-6589
fraid	-6590
"?	-6591
▁stro	-6592
▁chatbots	-6593
hyde	-6594
▁axis	-6595
(2	-6596
▁sensor	-6597
loro	-6598
ptember	-6599
▁afraid	-6600
▁functioning	-6601
▁Only	-6602
normal	-6603
▁tested	-6604
▁Cur	-6605
dient	-6606
▁solvents	-6607
▁cyber	-6608
▁clim	-6609
▁girls	-6610
EX	-6611
▁forecast	-6612
▁removing	-6613
▁abs	-6614
▁none	-6615
▁increases	-6616
vector	-6617
Set	-6618
He	-6619
OD	-6620
agram	-6621
▁La	-6622
▁expressions	-6623
uce	-6624
▁AG	-6625
▁tight	-6626
▁lose	-6627
▁clock	-6628
▁ensures	-6629
▁tried	-6630
datetime	-6631
▁classified	-6632
▁weeks	-6633
▁weapons	-6634
ishing	-6635
▁fraud	-6636
▁RAM	-6637
▁Germany	-6638
▁canvas	-6639
▁TO	-6640
anged	-6641
Ph	-6642
AME	-6643
▁od	-6644
ATION	-6645
▁procedure	-6646
local	-6647
fast	-6648
free	-6649
anking	-6650
▁fruit	-6651
pan	-6652
▁35	-6653
▁scre	-6654
Des	-6655
▁respiratory	-6656
▁wal	-6657
▁windows	-6658
ials	-6659
vance	-6660
▁speaking	-6661
ingu	-6662
▁opening	-6663
▁certific	-6664
▁Elect	-6665
ruption	-6666
▁repeated	-6667
▁crisis	-6668
▁bacteria	-6669
▁specifications	-6670
▁17.	-6671
▁describing	-6672
▁computational	-6673
env	-6674
It	-6675
▁е	-6676
▁–	-6677
fr	-6678
late	-6679
-9	-6680
▁birds	-6681
overed	-6682
dist	-6683
UP	-6684
▁narr	-6685
▁strategic	-6686
бо	-6687
▁cra	-6688
▁corrected	-6689
▁CH	-6690
▁theme	-6691
▁tutor	-6692
powered	-6693
lig	-6694
▁War	-6695
▁gard	-6696
ancer	-6697
ных	-6698
▁tailored	-6699
▁9,	-6700
▁meat	-6701
▁concerned	-6702
▁welcome	-6703
▁disorders	-6704
▁electricity	-6705
▁Dist	-6706
matory	-6707
rition	-6708
▁uncomfortable	-6709
ipl	-6710
▁decimal	-6711
aled	-6712
istent	-6713
▁sou	-6714
▁cream	-6715
▁Russia	-6716
▁French	-6717
▁laptop	-6718
reshold	-6719
▁toler	-6720
▁massive	-6721
▁obstac	-6722
authorized	-6723
adata	-6724
▁Soft	-6725
▁stret	-6726
Enter	-6727
close	-6728
▁pricing	-6729
▁customized	-6730
▁moist	-6731
How	-6732
▁divis	-6733
▁counsel	-6734
▁molecule	-6735
▁signs	-6736
ilies	-6737
_1	-6738
▁cum	-6739
▁sending	-6740
▁shorter	-6741
▁authorities	-6742
Select	-6743
▁elif	-6744
bra	-6745
▁ok	-6746
▁Rec	-6747
▁injury	-6748
▁Ask	-6749
▁negot	-6750
pyrimidine	-6751
price	-6752
▁racist	-6753
▁Pat	-6754
duc	-6755
▁throw	-6756
▁Tensor	-6757
▁religious	-6758
FA	-6759
▁Net	-6760
ores	-6761
▁steel	-6762
▁lik	-6763
▁bow	-6764
▁novel	-6765
▁trend	-6766
hetical	-6767
▁citizens	-6768
▁ep	-6769
mark	-6770
▁cutting	-6771
▁stick	-6772
▁composition	-6773
▁crim	-6774
iant	-6775
▁preprocess	-6776
forward	-6777
ades	-6778
▁biological	-6779
BC	-6780
▁les	-6781
rict	-6782
estyle	-6783
▁scores	-6784
▁grateful	-6785
asting	-6786
▁agency	-6787
▁calculates	-6788
▁intelligent	-6789
▁heard	-6790
commerce	-6791
▁pin	-6792
▁gets	-6793
np	-6794
▁мож	-6795
vered	-6796
▁mask	-6797
▁buffer	-6798
:0	-6799
▁cooking	-6800
Read	-6801
▁18.	-6802
apore	-6803
▁investors	-6804
SI	-6805
reement	-6806
▁demonstrate	-6807
▁Monitor	-6808
fill	-6809
▁fert	-6810
__(	-6811
ros	-6812
udd	-6813
node	-6814
▁PM	-6815
▁header	-6816
▁electro	-6817
▁revised	-6818
plays	-6819
Ad	-6820
▁databases	-6821
▁Canada	-6822
Serv	-6823
▁dates	-6824
▁Services	-6825
▁delete	-6826
▁`-	-6827
▁apps	-6828
▁salary	-6829
▁empathy	-6830
▁diagnosis	-6831
▁как	-6832
▁apart	-6833
▁pal	-6834
▁Title	-6835
▁greatly	-6836
▁crime	-6837
▁General	-6838
▁automate	-6839
roy	-6840
▁editor	-6841
▁vulnerability	-6842
▁concentration	-6843
▁AC	-6844
cm	-6845
▁forget	-6846
▁leaves	-6847
▁Ins	-6848
ractions	-6849
>>	-6850
▁sensation	-6851
▁reader	-6852
▁flag	-6853
▁argue	-6854
▁inventory	-6855
▁earn	-6856
▁pump	-6857
▁кото	-6858
▁Enter	-6859
▁precursor	-6860
dig	-6861
ician	-6862
▁delicious	-6863
with	-6864
споль	-6865
▁`.	-6866
96	-6867
Line	-6868
▁coin	-6869
▁distributed	-6870
▁unexpected	-6871
▁Azure	-6872
▁heavi	-6873
▁polymer	-6874
▁cop	-6875
▁proof	-6876
▁simulation	-6877
▁APIs	-6878
▁focuses	-6879
▁designing	-6880
▁craft	-6881
▁annual	-6882
▁photos	-6883
quisition	-6884
▁similarity	-6885
rier	-6886
aware	-6887
▁dro	-6888
▁facil	-6889
▁imagine	-6890
▁aluminum	-6891
▁breaking	-6892
▁compatible	-6893
rust	-6894
▁acknow	-6895
▁Program	-6896
▁evaluating	-6897
▁protective	-6898
▁flexibility	-6899
▁oxygen	-6900
wide	-6901
nergy	-6902
▁ancient	-6903
44	-6904
▁recipe	-6905
EE	-6906
ij	-6907
Count	-6908
ested	-6909
▁Agent	-6910
▁claims	-6911
atter	-6912
▁Support	-6913
▁Click	-6914
autions	-6915
img	-6916
apers	-6917
ogram	-6918
javascript	-6919
rained	-6920
▁manual	-6921
ан	-6922
enty	-6923
▁Non	-6924
▁participate	-6925
Qt	-6926
▁sea	-6927
▁{}	-6928
▁returned	-6929
чи	-6930
check	-6931
▁aims	-6932
ament	-6933
▁Smart	-6934
predict	-6935
▁choosing	-6936
▁Master	-6937
▁mechanics	-6938
oon	-6939
charge	-6940
▁September	-6941
▁Rel	-6942
wall	-6943
ARCH	-6944
▁evolving	-6945
▁Prompt	-6946
▁nutri	-6947
▁sitting	-6948
serve	-6949
▁rephrase	-6950
luding	-6951
▁coding	-6952
▁periods	-6953
▁humanity	-6954
▁listed	-6955
▁gent	-6956
36	-6957
95	-6958
hell	-6959
▁Ver	-6960
▁____	-6961
▁Their	-6962
▁covered	-6963
▁Cy	-6964
aching	-6965
▁brown	-6966
Em	-6967
▁administr	-6968
▁People	-6969
▁referred	-6970
▁worked	-6971
ifies	-6972
dehyde	-6973
37	-6974
missive	-6975
ols	-6976
▁fur	-6977
DataFrame	-6978
▁horiz	-6979
▁protected	-6980
▁blockchain	-6981
atin	-6982
ike	-6983
Index	-6984
ratic	-6985
▁19.	-6986
▁hotel	-6987
▁bond	-6988
▁accomplish	-6989
▁encrypt	-6990
▁Products	-6991
▁addresses	-6992
▁DNA	-6993
Chat	-6994
▁jump	-6995
▁powers	-6996
▁Game	-6997
build	-6998
▁Best	-6999
answer	-7000
▁pregn	-7001
ONT	-7002
▁$1	-7003
▁succeed	-7004
▁presentation	-7005
▁pi	-7006
▁Every	-7007
▁Conclusion	-7008
▁pizza	-7009
▁Supp	-7010
▁UI	-7011
uous	-7012
▁town	-7013
▁2020	-7014
▁render	-7015
▁threats	-7016
▁replaced	-7017
▁equivalent	-7018
LI	-7019
▁burn	-7020
▁vacc	-7021
▁introduce	-7022
```	-7023
▁star	-7024
▁Share	-7025
▁Christ	-7026
▁Integr	-7027
▁breathing	-7028
▁:=	-7029
▁rely	-7030
acking	-7031
▁substances	-7032
▁surg	-7033
▁login	-7034
aper	-7035
▁printing	-7036
cies	-7037
ве	-7038
:",	-7039
sk	-7040
cket	-7041
abase	-7042
▁ethics	-7043
agn	-7044
▁equations	-7045
▁turned	-7046
▁afford	-7047
▁romantic	-7048
▁hypothetical	-7049
rot	-7050
▁presented	-7051
▁ethnic	-7052
▁anten	-7053
▁zone	-7054
▁smile	-7055
▁BY	-7056
гу	-7057
post	-7058
▁Fire	-7059
▁kids	-7060
ately	-7061
▁requested	-7062
▁iron	-7063
▁MA	-7064
▁France	-7065
UE	-7066
alt	-7067
▁combine	-7068
▁34	-7069
pass	-7070
▁developments	-7071
▁explan	-7072
▁capability	-7073
water	-7074
▁posts	-7075
▁deployment	-7076
▁codes	-7077
▁foundation	-7078
aten	-7079
▁accord	-7080
elta	-7081
▁waves	-7082
▁deeply	-7083
▁theore	-7084
▁hydroxide	-7085
▁El	-7086
▁Log	-7087
emory	-7088
azing	-7089
lights	-7090
▁nit	-7091
▁leadership	-7092
field	-7093
▁rapidly	-7094
▁Creating	-7095
▁supplier	-7096
▁neur	-7097
▁discl	-7098
▁conversion	-7099
tune	-7100
▁Hel	-7101
hene	-7102
osystem	-7103
▁Content	-7104
▁Australia	-7105
▁infection	-7106
ods	-7107
rec	-7108
▁fab	-7109
▁escape	-7110
▁religion	-7111
▁gentle	-7112
▁incred	-7113
▁encounter	-7114
ado	-7115
▁Car	-7116
▁recip	-7117
▁launch	-7118
▁breasts	-7119
▁Pharmaceutical	-7120
omy	-7121
berse	-7122
ду	-7123
▁End	-7124
iscal	-7125
▁chair	-7126
▁Review	-7127
ishes	-7128
▁extracted	-7129
▁establishment	-7130
long	-7131
▁Applic	-7132
▁shoes	-7133
ART	-7134
▁Stand	-7135
▁stars	-7136
▁Second	-7137
▁productive	-7138
▁km	-7139
abetes	-7140
▁Access	-7141
▁packaging	-7142
▁consulting	-7143
▁Explanation	-7144
1-	-7145
DS	-7146
▁versions	-7147
▁Fibonacci	-7148
bersecurity	-7149
▁slowly	-7150
▁participants	-7151
Ac	-7152
▁pollution	-7153
▁possibility	-7154
1"	-7155
ки	-7156
▁authority	-7157
▁unauthorized	-7158
assion	-7159
▁sched	-7160
▁classify	-7161
▁('	-7162
enew	-7163
▁mig	-7164
ching	-7165
▁delay	-7166
▁Muslim	-7167
▁generative	-7168
PY	-7169
▁duct	-7170
driven	-7171
▁shift	-7172
▁Description	-7173
▁Environment	-7174
jpg	-7175
▁pursu	-7176
▁agriculture	-7177
▁comparison	-7178
▁clause	-7179
directory	-7180
Trans	-7181
▁filters	-7182
▁measured	-7183
▁forces	-7184
▁shapes	-7185
det	-7186
biased	-7187
alid	-7188
▁transformation	-7189
▁Direct	-7190
▁pigments	-7191
Event	-7192
▁couple	-7193
▁bind	-7194
▁taxes	-7195
94	-7196
▁listening	-7197
[1,	-7198
▁America	-7199
uge	-7200
▁consens	-7201
▁precautions	-7202
Question	-7203
▁accordance	-7204
▁{{	-7205
})	-7206
but	-7207
▁Auto	-7208
bromo	-7209
▁finally	-7210
▁expressed	-7211
▁electronics	-7212
не	-7213
▁increasingly	-7214
vision	-7215
▁parallel	-7216
▁UN	-7217
▁cheese	-7218
▁safely	-7219
▁weaknesses	-7220
[]	-7221
▁tun	-7222
False	-7223
▁Const	-7224
▁domest	-7225
▁fashion	-7226
▁Furthermore	-7227
▁meal	-7228
carbon	-7229
▁mitigate	-7230
▁German	-7231
igen	-7232
▁recovery	-7233
ua	-7234
▁horm	-7235
icians	-7236
▁abuse	-7237
▁sister	-7238
▁vulnerable	-7239
▁Bel	-7240
▁vag	-7241
▁Food	-7242
▁vicuna	-7243
NO	-7244
▁Pur	-7245
▁inflammation	-7246
▁spect	-7247
▁Determine	-7248
▁infin	-7249
▁cutoff	-7250
▁Apple	-7251
▁Analysis	-7252
▁depression	-7253
▁те	-7254
lama	-7255
▁eventually	-7256
shape	-7257
urd	-7258
▁configure	-7259
▁begins	-7260
ansion	-7261
▁Initialize	-7262
▁shopping	-7263
▁при	-7264
abled	-7265
▁HTTP	-7266
▁stereotypes	-7267
▁funny	-7268
hai	-7269
▁bird	-7270
greg	-7271
▁flavor	-7272
race	-7273
▁Ens	-7274
▁ju	-7275
▁Singapore	-7276
insert	-7277
oday	-7278
▁Follow	-7279
▁buying	-7280
quinoline	-7281
lin	-7282
▁therefore	-7283
ста	-7284
▁perpet	-7285
▁vectors	-7286
RI	-7287
▁adopt	-7288
▁avoiding	-7289
▁landscape	-7290
ivot	-7291
▁precision	-7292
http	-7293
▁searching	-7294
▁margin	-7295
▁contexts	-7296
Write	-7297
▁supporting	-7298
var	-7299
▁university	-7300
▁mine	-7301
▁Task	-7302
clust	-7303
▁voc	-7304
abling	-7305
▁displays	-7306
▁Prof	-7307
▁comma	-7308
▁3)	-7309
▁cats	-7310
select	-7311
▁illust	-7312
'],	-7313
▁AR	-7314
ride	-7315
Torch	-7316
▁gar	-7317
▁hazards	-7318
▁rough	-7319
▁ecosystem	-7320
▁essay	-7321
▁environmentally	-7322
▁crow	-7323
▁North	-7324
▁engines	-7325
▁Energy	-7326
advant	-7327
▁transparent	-7328
version	-7329
png	-7330
commod	-7331
▁arise	-7332
▁engaged	-7333
▁Rewrite	-7334
▁cooling	-7335
password	-7336
▁username	-7337
-7	-7338
▁derived	-7339
aint	-7340
▁vend	-7341
▁antibi	-7342
▁caution	-7343
icating	-7344
▁ske	-7345
▁eliminate	-7346
▁Ap	-7347
▁driven	-7348
zer	-7349
▁herb	-7350
▁infections	-7351
▁hazardous	-7352
▁prediction	-7353
▁numerous	-7354
▁operates	-7355
▁UK	-7356
▁pron	-7357
▁street	-7358
▁agencies	-7359
▁edit	-7360
▁reaching	-7361
▁Dev	-7362
▁Document	-7363
TO	-7364
aker	-7365
▁roll	-7366
▁minor	-7367
uct	-7368
▁weigh	-7369
▁derivative	-7370
_2	-7371
true	-7372
anish	-7373
▁stages	-7374
▁arous	-7375
-19	-7376
▁""	-7377
▁31	-7378
▁Mode	-7379
▁sensitivity	-7380
▁29	-7381
▁Imag	-7382
▁conflicts	-7383
▁===	-7384
▁Opt	-7385
▁depart	-7386
▁Thought	-7387
▁watching	-7388
▁rubber	-7389
▁dupl	-7390
▁loyal	-7391
iform	-7392
▁explanations	-7393
Wh	-7394
▁YouT	-7395
▁bytes	-7396
Al	-7397
▁Off	-7398
unning	-7399
▁coins	-7400
display	-7401
▁widget	-7402
▁compute	-7403
▁velocity	-7404
gre	-7405
consum	-7406
▁assumes	-7407
ln	-7408
▁tit	-7409
▁border	-7410
▁Intel	-7411
▁Arab	-7412
▁police	-7413
vol	-7414
▁magnetic	-7415
▁motivated	-7416
▁supportive	-7417
holder	-7418
2]	-7419
▁schema	-7420
▁neighbor	-7421
anted	-7422
▁studying	-7423
lobal	-7424
Number	-7425
▁facts	-7426
▁families	-7427
▁discussion	-7428
▁solely	-7429
▁possibilities	-7430
asks	-7431
▁Conf	-7432
▁ship	-7433
elsius	-7434
▁cache	-7435
▁enemy	-7436
▁fibers	-7437
▁nu	-7438
▁reported	-7439
▁therapist	-7440
▁proport	-7441
▁arrays	-7442
otive	-7443
▁socket	-7444
▁chloride	-7445
screen	-7446
▁precise	-7447
123	-7448
▁Focus	-7449
▁derog	-7450
▁beings	-7451
▁hus	-7452
▁flight	-7453
▁polymers	-7454
▁Rout	-7455
▁Ok	-7456
▁cube	-7457
umes	-7458
float	-7459
▁setup	-7460
▁bill	-7461
▁shut	-7462
▁methyl	-7463
▁customize	-7464
▁lifestyle	-7465
adder	-7466
tainer	-7467
▁Control	-7468
"><	-7469
▁5:	-7470
1`	-7471
▁kid	-7472
▁medicine	-7473
▁reagents	-7474
▁pee	-7475
▁Material	-7476
вать	-7477
Or	-7478
>"	-7479
▁gear	-7480
▁asse	-7481
▁исполь	-7482
▁designer	-7483
▁Cost	-7484
Pr	-7485
▁appoint	-7486
Do	-7487
gex	-7488
oral	-7489
▁300	-7490
▁cute	-7491
▁бы	-7492
▁fourth	-7493
criptive	-7494
OO	-7495
▁tom	-7496
using	-7497
▁malware	-7498
aset	-7499
▁native	-7500
▁studied	-7501
▁father	-7502
▁PyTorch	-7503
}{	-7504
▁spot	-7505
status	-7506
▁neuro	-7507
▁plate	-7508
▁literature	-7509
▁station	-7510
▁Port	-7511
▁heating	-7512
▁sunshine	-7513
haust	-7514
▁hun	-7515
▁corner	-7516
hydroxy	-7517
▁во	-7518
▁2021	-7519
▁worry	-7520
speed	-7521
▁batch	-7522
▁satisfied	-7523
▁exploration	-7524
▁telling	-7525
▁Replace	-7526
▁Mat	-7527
▁TensorFlow	-7528
▁subtract	-7529
enewable	-7530
▁unbiased	-7531
▁linked	-7532
LY	-7533
▁fly	-7534
▁treatments	-7535
▁\"	-7536
▁occurred	-7537
▁ф	-7538
▁calm	-7539
▁browse	-7540
▁Dig	-7541
phones	-7542
elligence	-7543
layer	-7544
▁rainf	-7545
▁backup	-7546
▁conversational	-7547
▁Spec	-7548
▁actively	-7549
▁Bitcoin	-7550
▁estimated	-7551
▁evolution	-7552
▁statistics	-7553
▁Jew	-7554
▁а	-7555
▁observed	-7556
▁inequality	-7557
Le	-7558
ossible	-7559
▁solving	-7560
▁accommod	-7561
▁inhib	-7562
pay	-7563
acter	-7564
images	-7565
▁ester	-7566
effective	-7567
▁icon	-7568
▁chapter	-7569
CII	-7570
▁41	-7571
olean	-7572
▁lights	-7573
▁adjusting	-7574
▁`<	-7575
▁unf	-7576
chron	-7577
▁lips	-7578
▁kitchen	-7579
▁\[	-7580
osph	-7581
▁rainfall	-7582
▁Search	-7583
▁encoding	-7584
ча	-7585
▁editing	-7586
▁Upstream	-7587
▁shop	-7588
▁accident	-7589
ylpy	-7590
▁immune	-7591
▁Android	-7592
Box	-7593
you	-7594
▁island	-7595
relation	-7596
ungs	-7597
▁Oper	-7598
▁Quant	-7599
▁managed	-7600
▁embedded	-7601
cling	-7602
poration	-7603
▁quantity	-7604
-(	-7605
▁revolution	-7606
▁curve	-7607
▁reset	-7608
▁до	-7609
mber	-7610
specific	-7611
▁matplotlib	-7612
jac	-7613
▁Discuss	-7614
1>	-7615
▁>=	-7616
▁comparing	-7617
▁derogatory	-7618
▁-->	-7619
▁rig	-7620
En	-7621
00-2000	-7622
.")	-7623
aws	-7624
▁democ	-7625
bt	-7626
ambda	-7627
▁exercises	-7628
▁discomfort	-7629
▁discussing	-7630
▁disk	-7631
▁socially	-7632
██	-7633
anes	-7634
▁frameworks	-7635
▁YouTube	-7636
▁instances	-7637
pling	-7638
kg	-7639
core	-7640
▁enjoying	-7641
88	-7642
▁Bre	-7643
▁1500-2000	-7644
)`	-7645
▁fruits	-7646
▁acts	-7647
▁accepted	-7648
▁decided	-7649
▁bias	-7650
▁affects	-7651
▁100%	-7652
▁await	-7653
▁happened	-7654
▁mathematics	-7655
▁conducted	-7656
▁misunder	-7657
SA	-7658
▁م	-7659
▁broken	-7660
97	-7661
▁dirty	-7662
▁atoms	-7663
▁metabol	-7664
▁chemists	-7665
info	-7666
oting	-7667
▁erotic	-7668
▁providers	-7669
tim	-7670
▁swim	-7671
device	-7672
▁outdoor	-7673
▁sold	-7674
elihood	-7675
▁grammat	-7676
▁jokes	-7677
▁Examples	-7678
phenyl	-7679
transform	-7680
▁protecting	-7681
▁42	-7682
▁depict	-7683
▁storing	-7684
TX	-7685
▁Road	-7686
▁sites	-7687
▁physically	-7688
▁gave	-7689
fluor	-7690
▁orientation	-7691
▁rank	-7692
location	-7693
▁ease	-7694
filename	-7695
Load	-7696
▁dut	-7697
ione	-7698
▁Save	-7699
racy	-7700
▁puzz	-7701
▁strange	-7702
gl	-7703
requ	-7704
vate	-7705
▁это	-7706
endar	-7707
▁playful	-7708
igned	-7709
▁Summary	-7710
▁integrate	-7711
ran	-7712
Client	-7713
▁ocean	-7714
▁maximize	-7715
▁receiving	-7716
▁permission	-7717
OC	-7718
rimidin	-7719
entials	-7720
▁Personal	-7721
names	-7722
EL	-7723
rencies	-7724
▁Agreement	-7725
▁kg	-7726
task	-7727
umps	-7728
atell	-7729
▁enables	-7730
▁1.0	-7731
▁walls	-7732
▁nan	-7733
▁promotes	-7734
afe	-7735
сти	-7736
▁Str	-7737
▁certificate	-7738
▁warmth	-7739
▁hob	-7740
▁laugh	-7741
▁designs	-7742
▁certainly	-7743
+2	-7744
▁grand	-7745
▁Indian	-7746
▁(`	-7747
aren	-7748
▁coverage	-7749
▁impossible	-7750
▁interval	-7751
mean	-7752
27	-7753
Sp	-7754
ETH	-7755
sent	-7756
▁Autom	-7757
▁typical	-7758
▁um	-7759
Input	-7760
▁delivering	-7761
▁EX	-7762
atility	-7763
▁breaks	-7764
▁governments	-7765
etitive	-7766
▁peaceful	-7767
▁dimension	-7768
arrow	-7769
▁texts	-7770
▁metric	-7771
▁teaching	-7772
▁diffusion	-7773
до	-7774
ши	-7775
").	-7776
▁reson	-7777
▁fantasy	-7778
▁labeled	-7779
▁vegetables	-7780
▁king	-7781
veys	-7782
▁principle	-7783
▁ingredient	-7784
▁symbols	-7785
orage	-7786
▁writer	-7787
▁Downstream	-7788
▁Account	-7789
▁то	-7790
Start	-7791
carbox	-7792
▁fitness	-7793
valid	-7794
player	-7795
▁smell	-7796
▁hypothesis	-7797
▁fan	-7798
▁psychological	-7799
▁fas	-7800
▁hospital	-7801
▁ago	-7802
target	-7803
▁adjusted	-7804
▁integrity	-7805
▁sight	-7806
▁governance	-7807
ameters	-7808
cv	-7809
icism	-7810
ruistic	-7811
86	-7812
▁sale	-7813
replace	-7814
ping	-7815
▁funding	-7816
▁permits	-7817
▁controvers	-7818
▁ultimately	-7819
▁Value	-7820
▁comprom	-7821
category	-7822
abil	-7823
▁sle	-7824
▁pose	-7825
roud	-7826
quir	-7827
eding	-7828
▁famous	-7829
▁antenna	-7830
▁controller	-7831
▁recy	-7832
inflam	-7833
▁nitro	-7834
▁radio	-7835
▁unless	-7836
▁activation	-7837
▁Temperature	-7838
edia	-7839
Service	-7840
▁keyboard	-7841
▁Gra	-7842
▁insect	-7843
▁diabetes	-7844
▁personnel	-7845
gi	-7846
link	-7847
Message	-7848
▁startup	-7849
▁discrimin	-7850
▁coating	-7851
▁Production	-7852
ourse	-7853
));	-7854
uan	-7855
erent	-7856
▁debate	-7857
▁assert	-7858
>`	-7859
OU	-7860
▁wish	-7861
▁philosop	-7862
Form	-7863
▁pipe	-7864
▁payments	-7865
ala	-7866
Gener	-7867
▁automated	-7868
▁reputable	-7869
▁nearby	-7870
▁acet	-7871
▁aggress	-7872
▁csv	-7873
▁detected	-7874
▁Word	-7875
choice	-7876
Can	-7877
▁arri	-7878
PP	-7879
andom	-7880
▁finish	-7881
▁curious	-7882
▁register	-7883
Code	-7884
▁regulation	-7885
▁Applications	-7886
▁herself	-7887
exec	-7888
▁susp	-7889
▁moderate	-7890
▁pants	-7891
▁creatures	-7892
▁Uk	-7893
▁visualization	-7894
pu	-7895
▁Rob	-7896
▁nucle	-7897
request	-7898
▁belief	-7899
▁treating	-7900
▁fingers	-7901
▁neck	-7902
▁thous	-7903
cending	-7904
▁BERT	-7905
▁asks	-7906
▁Renewable	-7907
▁Park	-7908
▁happening	-7909
▁exhib	-7910
BA	-7911
▁Transformer	-7912
hoot	-7913
▁Water	-7914
▁hydrochloride	-7915
▁drawn	-7916
inflammatory	-7917
▁entertainment	-7918
orus	-7919
etary	-7920
▁Unity	-7921
ours	-7922
▁(1)	-7923
▁More	-7924
▁refine	-7925
▁Sl	-7926
▁Real	-7927
ama	-7928
▁raised	-7929
▁stronger	-7930
▁agricultural	-7931
Par	-7932
▁West	-7933
ulative	-7934
▁intensity	-7935
▁previously	-7936
enior	-7937
%.	-7938
PM	-7939
▁Rust	-7940
57	-7941
▁async	-7942
▁criminal	-7943
▁ru	-7944
entral	-7945
cor	-7946
▁1/2	-7947
rooms	-7948
essional	-7949
▁incident	-7950
▁numerical	-7951
abul	-7952
▁wider	-7953
▁movies	-7954
▁recept	-7955
▁submissive	-7956
▁contributions	-7957
▁discount	-7958
▁COVID	-7959
▁sport	-7960
▁psychologist	-7961
None	-7962
rely	-7963
▁balls	-7964
▁moved	-7965
▁powder	-7966
grid	-7967
chnology	-7968
лю	-7969
▁trigger	-7970
▁tomorrow	-7971
▁vs	-7972
▁miles	-7973
▁looked	-7974
▁survive	-7975
rile	-7976
files	-7977
▁mixed	-7978
▁division	-7979
API	-7980
irror	-7981
▁Employ	-7982
хо	-7983
▁unknown	-7984
▁relation	-7985
ARCHAR	-7986
▁fiscal	-7987
-2,	-7988
▁survival	-7989
▁(3	-7990
▁Ma	-7991
▁Hand	-7992
▁О	-7993
exp	-7994
▁Summar	-7995
▁greenhouse	-7996
▁Educ	-7997
ris	-7998
itud	-7999
▁Rest	-8000
▁club	-8001
Answer	-8002
ensors	-8003
▁Facebook	-8004
▁obstacles	-8005
descriptive	-8006
rum	-8007
hist	-8008
lements	-8009
▁||	-8010
▁happens	-8011
▁creators	-8012
Man	-8013
▁Ju	-8014
▁femin	-8015
Hz	-8016
▁pand	-8017
ocking	-8018
▁suggested	-8019
harm	-8020
▁ASCII	-8021
▁inser	-8022
▁became	-8023
▁inspe	-8024
▁victim	-8025
▁consumers	-8026
▁matching	-8027
If	-8028
▁isn	-8029
BT	-8030
▁structured	-8031
uman	-8032
▁auth	-8033
={	-8034
▁continuously	-8035
how	-8036
bing	-8037
oles	-8038
hot	-8039
▁hel	-8040
mt	-8041
Be	-8042
▁employment	-8043
мен	-8044
▁battle	-8045
▁waiting	-8046
▁addressed	-8047
TR	-8048
vari	-8049
▁shirt	-8050
ircraft	-8051
▁drawing	-8052
Tra	-8053
▁bits	-8054
▁para	-8055
▁conducting	-8056
Not	-8057
▁rust	-8058
▁nerv	-8059
▁extraction	-8060
iaz	-8061
▁odd	-8062
utable	-8063
▁english	-8064
▁beach	-8065
▁disadvant	-8066
Array	-8067
▁turns	-8068
▁solub	-8069
ool	-8070
▁Union	-8071
▁observ	-8072
▁Internet	-8073
ga	-8074
(3	-8075
▁ре	-8076
raine	-8077
▁proud	-8078
▁contra	-8079
▁household	-8080
▁args	-8081
▁film	-8082
▁ring	-8083
▁ин	-8084
▁ends	-8085
child	-8086
osc	-8087
▁Bu	-8088
▁paths	-8089
:**	-8090
▁likelihood	-8091
▁cart	-8092
▁gradient	-8093
▁Tur	-8094
▁inches	-8095
▁insert	-8096
document	-8097
▁tension	-8098
II	-8099
▁interpretation	-8100
▁controlling	-8101
▁Sur	-8102
iophene	-8103
▁Industrial	-8104
▁responding	-8105
▁Climate	-8106
▁husband	-8107
▁Marketing	-8108
▁recently	-8109
▁nutrition	-8110
▁Coll	-8111
▁Similar	-8112
▁amazing	-8113
▁trouble	-8114
▁frequently	-8115
Net	-8116
izers	-8117
▁gift	-8118
▁perceived	-8119
TS	-8120
items	-8121
▁dire	-8122
▁sexy	-8123
▁disrespect	-8124
▁references	-8125
entity	-8126
'])	-8127
▁);	-8128
server	-8129
▁retain	-8130
clear	-8131
username	-8132
▁incent	-8133
▁deviation	-8134
▁footprint	-8135
▁grass	-8136
▁evening	-8137
▁introduced	-8138
CA	-8139
▁overs	-8140
Of	-8141
oT	-8142
oses	-8143
▁concaten	-8144
:"	-8145
prom	-8146
▁hurtful	-8147
▁api	-8148
▁winning	-8149
opic	-8150
dings	-8151
inated	-8152
Fi	-8153
OUR	-8154
▁habits	-8155
▁minimal	-8156
ading	-8157
▁desktop	-8158
▁dear	-8159
▁bullet	-8160
▁discussions	-8161
▁irritation	-8162
defined	-8163
▁losses	-8164
▁radius	-8165
)]	-8166
arency	-8167
edge	-8168
hern	-8169
▁almost	-8170
▁Subject	-8171
▁Evaluate	-8172
▁ourselves	-8173
▁gained	-8174
▁workplace	-8175
▁123	-8176
▁gaming	-8177
▁Fine	-8178
Window	-8179
▁"<	-8180
>,	-8181
card	-8182
▁networking	-8183
party	-8184
▁Digital	-8185
▁inflation	-8186
▁threshold	-8187
▁parse	-8188
▁court	-8189
▁themes	-8190
Cur	-8191
▁excl	-8192
gend	-8193
▁Table	-8194
▁intel	-8195
nn	-8196
▁Apr	-8197
Create	-8198
▁advoc	-8199
context	-8200
Che	-8201
▁targeted	-8202
▁manipulation	-8203
▁tech	-8204
abulary	-8205
▁offered	-8206
▁cooperation	-8207
stic	-8208
▁saved	-8209
iture	-8210
rought	-8211
▁consume	-8212
▁explicitly	-8213
▁Phys	-8214
▁reads	-8215
▁discipl	-8216
aceted	-8217
▁discussed	-8218
such	-8219
▁adjustments	-8220
client	-8221
Lay	-8222
omethyl	-8223
▁connecting	-8224
akers	-8225
▁tire	-8226
▁vess	-8227
aid	-8228
▁sin	-8229
▁dish	-8230
▁gravity	-8231
▁cryptocurrency	-8232
wo	-8233
pur	-8234
bleshoot	-8235
▁narrative	-8236
aca	-8237
pop	-8238
▁SD	-8239
▁updating	-8240
▁Jiang	-8241
All	-8242
▁ce	-8243
▁knowing	-8244
▁norms	-8245
IGHT	-8246
▁permissions	-8247
▁jo	-8248
▁advancements	-8249
BS	-8250
service	-8251
▁dinner	-8252
aughter	-8253
month	-8254
ighter	-8255
▁vibrant	-8256
▁stroke	-8257
▁ESP	-8258
▁sensations	-8259
wear	-8260
▁emoj	-8261
▁eager	-8262
iciency	-8263
▁gun	-8264
▁hey	-8265
▁failed	-8266
▁colleag	-8267
▁relevance	-8268
aught	-8269
^^^^^^^^	-8270
erial	-8271
ANT	-8272
gent	-8273
anghai	-8274
▁arrange	-8275
▁Function	-8276
▁expansion	-8277
▁Alp	-8278
▁fuck	-8279
▁intr	-8280
▁bullets	-8281
▁mentions	-8282
(1)	-8283
▁feather	-8284
uary	-8285
▁filename	-8286
▁handled	-8287
▁fet	-8288
▁tea	-8289
▁seeing	-8290
1111	-8291
▁angry	-8292
▁emphasizes	-8293
▁PR	-8294
rows	-8295
▁tuple	-8296
▁grade	-8297
▁earned	-8298
PR	-8299
▁rewards	-8300
Ltd	-8301
▁allerg	-8302
▁Regular	-8303
pip	-8304
▁unw	-8305
roph	-8306
▁dow	-8307
uling	-8308
update	-8309
▁USER	-8310
▁mechanical	-8311
▁Home	-8312
necess	-8313
▁holds	-8314
▁Intelligence	-8315
▁worldwide	-8316
▁perception	-8317
▁spiritual	-8318
▁perman	-8319
▁mort	-8320
▁batter	-8321
29	-8322
then	-8323
▁dil	-8324
▁tor	-8325
▁obj	-8326
ivate	-8327
element	-8328
▁summer	-8329
▁USB	-8330
▁[0,	-8331
▁tissue	-8332
ico	-8333
▁Ber	-8334
▁Back	-8335
return	-8336
▁pixels	-8337
▁buttons	-8338
▁37	-8339
▁orange	-8340
▁exhaust	-8341
alian	-8342
▁formed	-8343
ме	-8344
▁accessed	-8345
▁inherent	-8346
про	-8347
▁pivot	-8348
▁expressing	-8349
▁USA	-8350
▁century	-8351
▁organisms	-8352
▁12,	-8353
▁King	-8354
elling	-8355
▁Fed	-8356
atography	-8357
▁passionate	-8358
▁П	-8359
pol	-8360
▁plus	-8361
vid	-8362
▁info	-8363
▁ton	-8364
perty	-8365
▁faced	-8366
▁suppl	-8367
▁borrow	-8368
▁thanks	-8369
seud	-8370
ca	-8371
oga	-8372
▁38	-8373
lectual	-8374
ão	-8375
SELECT	-8376
On	-8377
never	-8378
▁priority	-8379
▁characteristic	-8380
▁Africa	-8381
inyl	-8382
▁renew	-8383
factor	-8384
sue	-8385
▁pret	-8386
▁subjects	-8387
conomic	-8388
▁Imagine	-8389
olf	-8390
▁plane	-8391
▁secre	-8392
CRE	-8393
▁recurs	-8394
Pl	-8395
▁..	-8396
▁horse	-8397
▁however	-8398
▁dio	-8399
▁Black	-8400
▁11,	-8401
▁Fast	-8402
▁Estab	-8403
▁recall	-8404
▁refrig	-8405
▁benz	-8406
▁charges	-8407
▁Char	-8408
natural	-8409
▁dependent	-8410
▁*/	-8411
▁dedication	-8412
abin	-8413
backs	-8414
itrile	-8415
ivered	-8416
▁unlike	-8417
▁staying	-8418
▁'.	-8419
▁hole	-8420
01	-8421
▁traits	-8422
▁Mal	-8423
amily	-8424
▁reasonable	-8425
▁je	-8426
ropy	-8427
▁boot	-8428
▁anticip	-8429
▁fibonacci	-8430
tered	-8431
▁evil	-8432
onym	-8433
▁cybersecurity	-8434
▁elig	-8435
▁Visit	-8436
▁unnecess	-8437
OIN	-8438
▁alive	-8439
▁sudd	-8440
ги	-8441
CTION	-8442
▁thro	-8443
men	-8444
ests	-8445
first	-8446
question	-8447
ott	-8448
▁могу	-8449
window	-8450
▁plenty	-8451
imum	-8452
▁isolation	-8453
Action	-8454
▁Visual	-8455
▁compassion	-8456
▁highlights	-8457
"),	-8458
▁mast	-8459
▁Equ	-8460
▁teen	-8461
▁boost	-8462
▁pounds	-8463
▁hydrometry	-8464
▁fa	-8465
got	-8466
▁bio	-8467
▁gene	-8468
▁tong	-8469
cher	-8470
omach	-8471
▁hack	-8472
▁pred	-8473
▁fake	-8474
▁spent	-8475
imp	-8476
▁PHP	-8477
▁HR	-8478
▁pursue	-8479
]]	-8480
▁Num	-8481
▁resil	-8482
▁occurring	-8483
rd	-8484
▁scr	-8485
▁analog	-8486
▁emails	-8487
▁sudden	-8488
▁evaluated	-8489
▁CRE	-8490
▁0.00	-8491
▁acting	-8492
▁Fact	-8493
▁bonds	-8494
hex	-8495
▁firewall	-8496
PUT	-8497
ribute	-8498
▁tkinter	-8499
▁concrete	-8500
54	-8501
mic	-8502
▁Meth	-8503
▁housing	-8504
39	-8505
▁400	-8506
▁kept	-8507
▁minute	-8508
▁dash	-8509
ocy	-8510
sed	-8511
alax	-8512
▁Asia	-8513
▁wides	-8514
▁believed	-8515
▁Financial	-8516
performance	-8517
▁convenient	-8518
fire	-8519
▁April	-8520
rection	-8521
VER	-8522
▁".	-8523
conf	-8524
▁hat	-8525
▁hop	-8526
ipher	-8527
▁wash	-8528
command	-8529
▁harder	-8530
74	-8531
▁Know	-8532
ifluor	-8533
hus	-8534
▁`/	-8535
ithmetic	-8536
▁Spanish	-8537
▁Draw	-8538
Out	-8539
ket	-8540
DATE	-8541
▁thin	-8542
▁maybe	-8543
▁narrow	-8544
▁schools	-8545
▁hall	-8546
▁wanting	-8547
▁allocated	-8548
'].	-8549
▁defend	-8550
▁nervous	-8551
▁trial	-8552
▁correlation	-8553
▁hide	-8554
▁Ensure	-8555
▁significance	-8556
section	-8557
▁thermal	-8558
▁chemistry	-8559
▁constructor	-8560
▁blank	-8561
▁dance	-8562
Me	-8563
pread	-8564
▁pipeline	-8565
▁controversial	-8566
onal	-8567
▁legit	-8568
▁discovered	-8569
че	-8570
oma	-8571
▁kne	-8572
▁Board	-8573
▁operators	-8574
apping	-8575
▁Offer	-8576
-12	-8577
Dis	-8578
rink	-8579
isting	-8580
▁thoroughly	-8581
▁Call	-8582
▁multif	-8583
fo	-8584
▁있	-8585
mato	-8586
▁degra	-8587
▁factory	-8588
▁Today	-8589
▁meditation	-8590
uccess	-8591
▁destroy	-8592
▁Training	-8593
▁campaigns	-8594
accur	-8595
▁sharp	-8596
▁publicly	-8597
▁sql	-8598
▁bold	-8599
▁TABLE	-8600
perm	-8601
вани	-8602
▁analyst	-8603
ierarch	-8604
▁turtle	-8605
▁portion	-8606
▁metadata	-8607
▁fold	-8608
▁dollars	-8609
▁temporary	-8610
▁serves	-8611
▁equality	-8612
▁CR	-8613
ruit	-8614
▁/>	-8615
▁oppon	-8616
send	-8617
asion	-8618
Up	-8619
matrix	-8620
▁facilitate	-8621
tok	-8622
orph	-8623
▁disrupt	-8624
▁scalable	-8625
airs	-8626
▁Rain	-8627
▁theories	-8628
lla	-8629
▁Jan	-8630
▁lung	-8631
▁shot	-8632
▁butter	-8633
Edit	-8634
▁caption	-8635
UNT	-8636
▁surrounded	-8637
▁technological	-8638
\]	-8639
▁panel	-8640
▁punish	-8641
▁operational	-8642
▁printf	-8643
▁conj	-8644
▁aggreg	-8645
▁survey	-8646
▁aircraft	-8647
▁iteration	-8648
сть	-8649
▁rh	-8650
▁bread	-8651
aldehyde	-8652
▁automotive	-8653
▁definitely	-8654
▁relaxation	-8655
▁fulfilling	-8656
▁pointer	-8657
PL	-8658
▁Di	-8659
▁pill	-8660
uls	-8661
icates	-8662
▁Flask	-8663
ethoxy	-8664
▁widespread	-8665
ductive	-8666
▁satell	-8667
▁ultimate	-8668
▁("	-8669
ilot	-8670
▁2023-0	-8671
diff	-8672
▁tomato	-8673
▁distress	-8674
▁competitors	-8675
ку	-8676
▁TR	-8677
▁tired	-8678
import	-8679
▁troubleshoot	-8680
New	-8681
▁sys	-8682
▁attempting	-8683
▁LED	-8684
▁100,	-8685
▁padding	-8686
▁motivation	-8687
module	-8688
▁pesticides	-8689
▁emphasis	-8690
▁organize	-8691
▁unnecessary	-8692
▁Chem	-8693
orient	-8694
▁constructive	-8695
▁ML	-8696
STM	-8697
plex	-8698
▁(2)	-8699
▁loaded	-8700
CV	-8701
со	-8702
DDDD	-8703
apple	-8704
▁colon	-8705
▁Conduct	-8706
▁transmitted	-8707
▁textiles	-8708
▁contributing	-8709
IO	-8710
▁prove	-8711
▁ast	-8712
lysis	-8713
"],	-8714
▁Line	-8715
▁Korea	-8716
▁delivered	-8717
▁altruistic	-8718
▁Understanding	-8719
▁SH	-8720
▁VR	-8721
labels	-8722
pending	-8723
▁attacker	-8724
Def	-8725
[:	-8726
iforn	-8727
▁tells	-8728
▁shel	-8729
▁animation	-8730
Mod	-8731
▁sunlight	-8732
▁confidential	-8733
89	-8734
▁ware	-8735
▁chances	-8736
sharp	-8737
angzhou	-8738
▁dreams	-8739
▁endpoint	-8740
▁",	-8741
sens	-8742
▁decline	-8743
▁credentials	-8744
ette	-8745
role	-8746
izable	-8747
▁2023.	-8748
▁Environmental	-8749
sage	-8750
system	-8751
▁edges	-8752
▁pretty	-8753
rape	-8754
diction	-8755
itative	-8756
▁Software	-8757
(25	-8758
▁stunning	-8759
▁"/	-8760
thal	-8761
▁Soil	-8762
▁soph	-8763
▁delim	-8764
otion	-8765
▁teeth	-8766
ilet	-8767
conds	-8768
▁clarity	-8769
▁neurons	-8770
▁domestic	-8771
TF	-8772
itis	-8773
▁img	-8774
IL	-8775
▁dividing	-8776
ITE	-8777
math	-8778
▁journal	-8779
▁reaches	-8780
▁reinforcement	-8781
▁logs	-8782
▁15,	-8783
▁Dat	-8784
▁VPN	-8785
▁divisible	-8786
eless	-8787
▁Year	-8788
vals	-8789
health	-8790
▁Korean	-8791
▁Poly	-8792
▁gro	-8793
audio	-8794
incip	-8795
▁March	-8796
▁putting	-8797
▁published	-8798
▁byte	-8799
▁paying	-8800
▁accounting	-8801
▁interfaces	-8802
ocker	-8803
(10	-8804
ifornia	-8805
▁recommendation	-8806
▁York	-8807
rating	-8808
Phone	-8809
bound	-8810
▁habit	-8811
▁bench	-8812
▁decor	-8813
ometers	-8814
pervised	-8815
▁tolerance	-8816
▁directories	-8817
\":	-8818
▁chess	-8819
ackend	-8820
▁toys	-8821
▁vocabulary	-8822
▁assemb	-8823
▁monthly	-8824
▁scripts	-8825
uction	-8826
▁mutual	-8827
▁5]	-8828
riage	-8829
▁(0,	-8830
▁calories	-8831
zing	-8832
▁attach	-8833
▁measurement	-8834
▁Hyd	-8835
▁oxid	-8836
ithium	-8837
▁(4	-8838
▁так	-8839
▁hearing	-8840
▁incorporate	-8841
mode	-8842
ports	-8843
▁radiation	-8844
▁village	-8845
▁attached	-8846
'),	-8847
front	-8848
▁cast	-8849
▁VARCHAR	-8850
▁moisture	-8851
▁из	-8852
▁san	-8853
cycle	-8854
▁privile	-8855
Sub	-8856
▁rice	-8857
▁regards	-8858
▁Remove	-8859
block	-8860
▁predicted	-8861
▁twe	-8862
obile	-8863
otechnology	-8864
▁chromatography	-8865
▁representative	-8866
Comp	-8867
▁polite	-8868
cut	-8869
▁[1	-8870
ultane	-8871
▁Learn	-8872
▁authentic	-8873
Test	-8874
!")	-8875
drop	-8876
▁Team	-8877
▁federal	-8878
la	-8879
}.	-8880
UST	-8881
▁memor	-8882
aborate	-8883
▁Shanghai	-8884
▁sexually	-8885
iences	-8886
▁manufacturers	-8887
Font	-8888
uing	-8889
▁Dem	-8890
▁proposal	-8891
▁Core	-8892
▁advisor	-8893
▁capacitor	-8894
','	-8895
▁consistency	-8896
-20	-8897
ные	-8898
▁64	-8899
ontal	-8900
▁heavily	-8901
IR	-8902
mes	-8903
\*	-8904
▁2021.	-8905
▁dioxide	-8906
▁transparency	-8907
▁tf	-8908
▁fiction	-8909
▁sklearn	-8910
▁streaming	-8911
▁Pos	-8912
▁cam	-8913
▁extent	-8914
▁tense	-8915
▁suppliers	-8916
▁resume	-8917
▁Natural	-8918
▁Similarly	-8919
▁enjoyable	-8920
31	-8921
▁managers	-8922
▁fif	-8923
atial	-8924
▁inquir	-8925
▁Encourage	-8926
▁disrespectful	-8927
}")	-8928
▁struggle	-8929
▁workflow	-8930
▁directions	-8931
begin	-8932
gender	-8933
▁serial	-8934
▁lungs	-8935
ере	-8936
usions	-8937
▁sulfur	-8938
▁lux	-8939
iginal	-8940
awai	-8941
▁Gen	-8942
▁dont	-8943
▁ride	-8944
▁lightweight	-8945
GL	-8946
peat	-8947
▁nose	-8948
▁Move	-8949
▁liver	-8950
▁bladder	-8951
Content	-8952
▁alphabet	-8953
husi	-8954
employ	-8955
▁caught	-8956
▁corporate	-8957
OW	-8958
▁autonomy	-8959
▁nutrients	-8960
зы	-8961
▁intu	-8962
inder	-8963
tuned	-8964
▁Optim	-8965
ение	-8966
▁preventing	-8967
▁"$	-8968
▁lean	-8969
▁surf	-8970
▁authors	-8971
▁chronic	-8972
▁clarification	-8973
▁penet	-8974
▁disposal	-8975
▁Humidity	-8976
▁performs	-8977
▁proteins	-8978
Log	-8979
scss	-8980
uture	-8981
▁annot	-8982
▁formats	-8983
othe	-8984
▁composed	-8985
▁multiplication	-8986
call	-8987
▁simultane	-8988
LS	-8989
uber	-8990
▁aid	-8991
Rec	-8992
tags	-8993
▁wit	-8994
▁Request	-8995
▁Think	-8996
ор	-8997
lly	-8998
▁bike	-8999
▁porn	-9000
squ	-9001
▁pictures	-9002
▁orgasm	-9003
▁timely	-9004
push	-9005
Table	-9006
tx	-9007
▁которы	-9008
сто	-9009
▁adults	-9010
▁Ukraine	-9011
▁paint	-9012
▁forever	-9013
▁],	-9014
▁willingness	-9015
▁Change	-9016
▁phenomenon	-9017
rr	-9018
▁merge	-9019
▁Bank	-9020
▁diameter	-9021
▁feathers	-9022
▁philosoph	-9023
reed	-9024
▁nic	-9025
▁Ben	-9026
▁Most	-9027
▁leaders	-9028
▁realize	-9029
▁compression	-9030
nitro	-9031
▁partial	-9032
▁sections	-9033
▁completing	-9034
inating	-9035
▁reject	-9036
lete	-9037
isions	-9038
▁banks	-9039
▁intim	-9040
▁spell	-9041
▁accidents	-9042
Application	-9043
ulin	-9044
▁ignore	-9045
▁crystall	-9046
▁determines	-9047
▁consistently	-9048
▁Even	-9049
▁drain	-9050
▁surgery	-9051
enger	-9052
▁acceleration	-9053
ginal	-9054
▁bowl	-9055
▁daughter	-9056
arrass	-9057
1_	-9058
▁tongue	-9059
▁majority	-9060
:</	-9061
▁cout	-9062
secutive	-9063
▁mapping	-9064
VE	-9065
▁cu	-9066
▁occup	-9067
▁Sentence	-9068
▁Christian	-9069
VIDIA	-9070
vious	-9071
Chloro	-9072
▁institution	-9073
▁multifaceted	-9074
va	-9075
▁mild	-9076
▁Professional	-9077
▁К	-9078
▁$100	-9079
idine	-9080
▁2019	-9081
▁furn	-9082
▁realized	-9083
▁timestamp	-9084
▁Node	-9085
▁garden	-9086
за	-9087
▁aer	-9088
▁Self	-9089
▁savings	-9090
▁Sincerely	-9091
▁44	-9092
curities	-9093
LU	-9094
eds	-9095
▁Computer	-9096
▁ownership	-9097
га	-9098
pers	-9099
▁dou	-9100
TC	-9101
▁Ye	-9102
▁20,	-9103
andon	-9104
Te	-9105
▁mining	-9106
87	-9107
ouds	-9108
▁Twitter	-9109
▁college	-9110
▁fro	-9111
▁rare	-9112
▁digest	-9113
▁Quality	-9114
▁ب	-9115
ckets	-9116
▁Arch	-9117
▁Require	-9118
IGN	-9119
NLP	-9120
Inst	-9121
filter	-9122
▁probably	-9123
▁strongly	-9124
▁involving	-9125
?",	-9126
▁arithmetic	-9127
BO	-9128
lands	-9129
▁Help	-9130
▁gloves	-9131
yo	-9132
unct	-9133
Context	-9134
jection	-9135
▁gently	-9136
▁transformed	-9137
▁Mar	-9138
▁THE	-9139
▁Close	-9140
EC	-9141
▁39	-9142
▁EU	-9143
▁SV	-9144
▁Deep	-9145
address	-9146
▁magical	-9147
save	-9148
▁offic	-9149
prene	-9150
▁laser	-9151
dest	-9152
▁namespace	-9153
RP	-9154
▁superior	-9155
▁snow	-9156
▁serving	-9157
▁embarrass	-9158
next	-9159
▁Tai	-9160
▁knows	-9161
▁marginal	-9162
kit	-9163
▁pleas	-9164
▁urban	-9165
▁extended	-9166
▁이	-9167
rout	-9168
▁Tele	-9169
▁Pandas	-9170
▁antibiotics	-9171
▁1.00	-9172
▁crop	-9173
▁shares	-9174
▁California	-9175
irts	-9176
▁Fore	-9177
ometric	-9178
▁substitute	-9179
Request	-9180
▁restaurants	-9181
▁13,	-9182
▁judge	-9183
ula	-9184
etra	-9185
▁"1	-9186
▁toy	-9187
itudes	-9188
▁aligns	-9189
▁bedroom	-9190
csharp	-9191
▁Global	-9192
asswords	-9193
1.0	-9194
▁alle	-9195
▁huge	-9196
volution	-9197
▁attraction	-9198
▁Care	-9199
%,	-9200
▁intimate	-9201
YPE	-9202
▁pour	-9203
▁Govern	-9204
▁drinks	-9205
▁inspir	-9206
▁interacting	-9207
▁Lead	-9208
▁styl	-9209
▁stomach	-9210
▁whis	-9211
AE	-9212
▁و	-9213
▁talent	-9214
rin	-9215
▁San	-9216
▁lever	-9217
▁combinations	-9218
venience	-9219
▁dominant	-9220
▁spon	-9221
▁examination	-9222
rag	-9223
total	-9224
▁accessing	-9225
custom	-9226
▁loads	-9227
▁warning	-9228
▁reflects	-9229
▁Exp	-9230
▁tact	-9231
layers	-9232
▁twice	-9233
▁incoming	-9234
peg	-9235
▁riddle	-9236
▁multiply	-9237
▁measuring	-9238
DR	-9239
Su	-9240
▁GB	-9241
▁infer	-9242
▁Two	-9243
▁inn	-9244
▁alien	-9245
reprene	-9246
▁receives	-9247
define	-9248
▁basket	-9249
connected	-9250
▁experiments	-9251
Ent	-9252
▁defect	-9253
▁communicating	-9254
Hub	-9255
idates	-9256
▁Online	-9257
DER	-9258
pdf	-9259
▁Wi	-9260
▁celeb	-9261
numpy	-9262
▁indices	-9263
▁OF	-9264
▁Plot	-9265
▁discovery	-9266
▁societies	-9267
▁paragraphs	-9268
').	-9269
-1)	-9270
orous	-9271
▁Long	-9272
▁searc	-9273
▁county	-9274
▁Quantum	-9275
▁uncertainty	-9276
ugment	-9277
▁Dynam	-9278
aturally	-9279
▁Virtual	-9280
▁ranking	-9281
levant	-9282
▁bucket	-9283
nes	-9284
loss	-9285
▁manif	-9286
▁Sunshine	-9287
arding	-9288
▁penal	-9289
▁NVIDIA	-9290
▁flames	-9291
▁Ve	-9292
cover	-9293
▁applies	-9294
/4	-9295
▁CE	-9296
▁Prote	-9297
▁quotes	-9298
▁smallest	-9299
oom	-9300
▁memories	-9301
cap	-9302
sim	-9303
▁fertil	-9304
▁Cap	-9305
▁Vol	-9306
pyplot	-9307
▁oblig	-9308
fitting	-9309
▁vacation	-9310
!!	-9311
zen	-9312
redit	-9313
▁hint	-9314
▁Category	-9315
▁emphasize	-9316
▁│	-9317
▁Low	-9318
▁odor	-9319
ный	-9320
▁embrace	-9321
▁birthday	-9322
umns	-9323
▁Eth	-9324
▁пре	-9325
▁repro	-9326
▁flowing	-9327
▁investigate	-9328
DC	-9329
▁pseud	-9330
▁adhere	-9331
▁boolean	-9332
zip	-9333
▁pod	-9334
entralized	-9335
▁targets	-9336
angchain	-9337
▁instruct	-9338
▁appealing	-9339
brid	-9340
▁polar	-9341
79	-9342
▁Gree	-9343
▁Hawai	-9344
▁haven	-9345
install	-9346
▁suffering	-9347
NNs	-9348
▁1]	-9349
▁batteries	-9350
ucking	-9351
▁holid	-9352
▁promise	-9353
▁inspection	-9354
▁src	-9355
elect	-9356
▁boss	-9357
▁hund	-9358
▁approved	-9359
▁sequences	-9360
▁Head	-9361
▁boxes	-9362
▁Server	-9363
▁Summarize	-9364
▁injection	-9365
▁molecular	-9366
▁naturally	-9367
▁fascin	-9368
▁opened	-9369
▁flowers	-9370
▁defining	-9371
▁instrument	-9372
▁alternatives	-9373
▁<-	-9374
havi	-9375
▁Store	-9376
▁enthusi	-9377
▁injuries	-9378
▁Div	-9379
ifact	-9380
▁GPUs	-9381
▁defe	-9382
Search	-9383
▁Artificial	-9384
brom	-9385
▁biggest	-9386
▁respected	-9387
▁consecutive	-9388
cd	-9389
ну	-9390
)))	-9391
▁naked	-9392
appoint	-9393
▁Sign	-9394
▁falls	-9395
▁Center	-9396
▁wireless	-9397
▁replacement	-9398
▁Rainfall	-9399
ME	-9400
▁whose	-9401
▁commission	-9402
▁integral	-9403
▁isolated	-9404
▁()	-9405
▁помо	-9406
▁Display	-9407
▁clusters	-9408
56	-9409
84	-9410
uses	-9411
ricks	-9412
ей	-9413
heses	-9414
▁gluc	-9415
▁screens	-9416
▁simplify	-9417
rine	-9418
ba	-9419
▁god	-9420
atitude	-9421
▁domains	-9422
Hand	-9423
▁Point	-9424
ventions	-9425
▁intellectual	-9426
▁((	-9427
▁Street	-9428
Aut	-9429
prop	-9430
▁USD	-9431
▁triple	-9432
▁unsure	-9433
▁broader	-9434
▁obtaining	-9435
▁6:	-9436
▁bub	-9437
apse	-9438
▁grab	-9439
ilation	-9440
▁enabling	-9441
▁calculator	-9442
git	-9443
▁East	-9444
▁promising	-9445
imental	-9446
▁classic	-9447
▁или	-9448
▁timer	-9449
▁philosophical	-9450
linear	-9451
▁owners	-9452
null	-9453
▁dur	-9454
ductor	-9455
бы	-9456
och	-9457
▁fragr	-9458
▁slave	-9459
▁centers	-9460
▁120	-9461
▁sch	-9462
uming	-9463
▁installing	-9464
▁wine	-9465
▁depos	-9466
**:	-9467
jud	-9468
▁43	-9469
▁roof	-9470
▁inference	-9471
▁Lack	-9472
▁compact	-9473
▁refriger	-9474
▁subscription	-9475
PYR	-9476
lamb	-9477
▁lies	-9478
▁recover	-9479
▁Adv	-9480
ampling	-9481
▁fabric	-9482
perties	-9483
▁subsequ	-9484
▁randomly	-9485
oll	-9486
unte	-9487
▁Begin	-9488
▁passwords	-9489
ounce	-9490
▁Seek	-9491
ju	-9492
vi	-9493
ско	-9494
nection	-9495
lean	-9496
ции	-9497
▁Gr	-9498
▁Through	-9499
▁dealing	-9500
пи	-9501
Ass	-9502
▁enum	-9503
▁vital	-9504
▁Report	-9505
▁counselor	-9506
incipal	-9507
uine	-9508
▁spl	-9509
-5	-9510
ders	-9511
▁revers	-9512
▁reminder	-9513
onna	-9514
▁fusion	-9515
structure	-9516
.”	-9517
DM	-9518
url	-9519
▁supplies	-9520
04	-9521
▁moan	-9522
▁scheme	-9523
▁warnings	-9524
▁autonomous	-9525
▁coordinate	-9526
Spe	-9527
▁MS	-9528
move	-9529
angers	-9530
▁Thanks	-9531
▁ending	-9532
dem	-9533
▁Instagram	-9534
cium	-9535
▁Imp	-9536
igating	-9537
▁shower	-9538
EG	-9539
▁21.	-9540
ONTENT	-9541
▁appreciation	-9542
PG	-9543
▁Term	-9544
▁merg	-9545
untu	-9546
▁addiction	-9547
ón	-9548
▁Should	-9549
58	-9550
▁nation	-9551
web	-9552
▁partnerships	-9553
rep	-9554
▁aligned	-9555
▁regulate	-9556
▁cow	-9557
▁decreased	-9558
eren	-9559
▁gall	-9560
▁closing	-9561
jiang	-9562
AAAAAAAA	-9563
▁locally	-9564
doc	-9565
▁Query	-9566
▁uniform	-9567
blem	-9568
▁amino	-9569
▁casual	-9570
▁acknowledge	-9571
ano	-9572
▁/*	-9573
▁stuff	-9574
written	-9575
▁append	-9576
China	-9577
▁Hist	-9578
▁immers	-9579
yy	-9580
▁cursor	-9581
▁shipping	-9582
▁excessive	-9583
▁Bot	-9584
▁pace	-9585
▁rooms	-9586
▁Config	-9587
isticated	-9588
Web	-9589
▁hierarch	-9590
▁severity	-9591
▁ethnicity	-9592
вет	-9593
▁bottle	-9594
▁facial	-9595
▁secrets	-9596
`)	-9597
▁infect	-9598
▁noticed	-9599
▁Generative	-9600
зу	-9601
▁Tax	-9602
▁Analyze	-9603
▁Link	-9604
▁Standard	-9605
▁January	-9606
last	-9607
▁Include	-9608
parent	-9609
▁guard	-9610
▁drivers	-9611
parameters	-9612
000,	-9613
▁INT	-9614
▁pressed	-9615
▁oh	-9616
lambda	-9617
▁clouds	-9618
▁oneself	-9619
▁bathroom	-9620
▁(0.	-9621
▁Hydrometry	-9622
Pol	-9623
graph	-9624
▁fits	-9625
▁crops	-9626
▁loves	-9627
▁dragon	-9628
▁retire	-9629
▁sqrt	-9630
▁honey	-9631
▁upgrade	-9632
▁pandemic	-9633
▁accum	-9634
9999	-9635
▁qualities	-9636
▁kilometers	-9637
▁guarantee	-9638
▁é	-9639
conc	-9640
▁muse	-9641
▁Studio	-9642
▁whenever	-9643
▁	-9644
e	-9645
t	-9646
a	-9647
o	-9648
i	-9649
n	-9650
s	-9651
r	-9652
l	-9653
h	-9654
d	-9655
c	-9656
u	-9657
m	-9658
p	-9659
f	-9660
g	-9661
y	-9662
w	-9663
.	-9664
b	-9665
,	-9666
v	-9667
k	-9668
:	-9669
I	-9670
T	-9671
x	-9672
A	-9673
"	-9674
-	-9675
'	-9676
`	-9677
0	-9678
1	-9679
S	-9680
)	-9681
(	-9682
U	-9683
2	-9684
C	-9685
P	-9686
q	-9687
_	-9688
H	-9689
E	-9690
D	-9691
=	-9692
3	-9693
z	-9694
M	-9695
O	-9696
R	-9697
L	-9698
N	-9699
5	-9700
j	-9701
W	-9702
?	-9703
F	-9704
4	-9705
B	-9706
/	-9707
G	-9708
*	-9709
Y	-9710
6	-9711
[	-9712
]	-9713
8	-9714
9	-9715
>	-9716
7	-9717
;	-9718
#	-9719
<	-9720
\	-9721
V	-9722
{	-9723
о	-9724
!	-9725
}	-9726
|	-9727
+	-9728
е	-9729
и	-9730
а	-9731
т	-9732
Q	-9733
н	-9734
K	-9735
J	-9736
$	-9737
с	-9738
р	-9739
%	-9740
X	-9741
в	-9742
л	-9743
к	-9744
м	-9745
п	-9746
д	-9747
^	-9748
у	-9749
ы	-9750
&	-9751
я	-9752
ь	-9753
Z	-9754
з	-9755
’	-9756
б	-9757
ч	-9758
•	-9759
г	-9760
й	-9761
”	-9762
ا	-9763
“	-9764
ж	-9765
х	-9766
@	-9767
ل	-9768
ю	-9769
é	-9770
ц	-9771
ш	-9772
م	-9773
ي	-9774
°	-9775
~	-9776
ن	-9777
ت	-9778
و	-9779
ф	-9780
э	-9781
ر	-9782
이	-9783
다	-9784
щ	-9785
د	-9786
·	-9787
ب	-9788
–	-9789
는	-9790
‘	-9791
ó	-9792
▌	-9793
ع	-9794
하	-9795
В	-9796
á	-9797
니	-9798
的	-9799
□	-9800
을	-9801
О	-9802
의	-9803
ه	-9804
它	-9805
ة	-9806
י	-9807
█	-9808
С	-9809
і	-9810
α	-9811
س	-9812
à	-9813
에	-9814
。	-9815
í	-9816
한	-9817
ك	-9818
ç	-9819
П	-9820
─	-9821
—	-9822
ف	-9823
가	-9824
Т	-9825
를	-9826
사	-9827
로	-9828
ã	-9829
К	-9830
М	-9831
수	-9832
ו	-9833
있	-9834
π	-9835
−	-9836
어	-9837
은	-9838
ی	-9839
Н	-9840
Р	-9841
أ	-9842
지	-9843
ح	-9844
│	-9845
적	-9846
정	-9847
И	-9848
è	-9849
해	-9850
ा	-9851
고	-9852
용	-9853
可	-9854
า	-9855
以	-9856
️	-9857
ה	-9858
기	-9859
ü	-9860
습	-9861
ל	-9862
ъ	-9863
ق	-9864
Д	-9865
×	-9866
ñ	-9867
😈	-9868
μ	-9869
ش	-9870
ج	-9871
인	-9872
대	-9873
Я	-9874
과	-9875
서	-9876
△	-9877
の	-9878
시	-9879
ê	-9880
ä	-9881
们	-9882
क	-9883
ε	-9884
र	-9885
、	-9886
我	-9887
σ	-9888
い	-9889
ο	-9890
是	-9891
ι	-9892
′	-9893
מ	-9894
▓	-9895
→	-9896
ö	-9897
위	-9898
나	-9899
ص	-9900
도	-9901
Е	-9902
े	-9903
す	-9904
요	-9905
Э	-9906
ร	-9907
א	-9908
부	-9909
τ	-9910
전	-9911
ת	-9912
ρ	-9913
£	-9914
ש	-9915
你	-9916
합	-9917
่	-9918
خ	-9919
±	-9920
간	-9921
λ	-9922
Г	-9923
्	-9924
으	-9925
√	-9926
น	-9927
ν	-9928
제	-9929
不	-9930
お	-9931
일	-9932
ר	-9933
А	-9934
อ	-9935
文	-9936
З	-9937
😊	-9938
נ	-9939
🤔	-9940
ב	-9941
ม	-9942
न	-9943
‍	-9944
들	-9945
ם	-9946
€	-9947
여	-9948
성	-9949
ک	-9950
Б	-9951
⋅	-9952
้	-9953
할	-9954
ก	-9955
用	-9956
ú	-9957
β	-9958
る	-9959
中	-9960
상	-9961
し	-9962
ไ	-9963
を	-9964
것	-9965
،	-9966
ह	-9967
ı	-9968
호	-9969
ط	-9970
ى	-9971
ด	-9972
비	-9973
เ	-9974
は	-9975
면	-9976
ं	-9977
で	-9978
ि	-9979
보	-9980
स	-9981
국	-9982
ま	-9983
방	-9984
に	-9985
ย	-9986
진	-9987
리	-9988
ô	-9989
소	-9990
â	-9991
一	-9992
κ	-9993
음	-9994
त	-9995
能	-9996
주	-9997
😢	-9998
ท	-9999
드	-10000
ز	-10001
ी	-10002
θ	-10003
ค	-10004
아	-10005
자	-10006
ー	-10007
ั	-10008
증	-10009
경	-10010
세	-10011
て	-10012
행	-10013
입	-10014
ง	-10015
∫	-10016
た	-10017
إ	-10018
У	-10019
η	-10020
스	-10021
Ч	-10022
么	-10023
đ	-10024
법	-10025
💪	-10026
ว	-10027
有	-10028
내	-10029
म	-10030
그	-10031
와	-10032
원	-10033
ע	-10034
🌊	-10035
모	-10036
문	-10037
如	-10038
υ	-10039
下	-10040
라	-10041
ذ	-10042
ี	-10043
在	-10044
®	-10045
好	-10046
ิ	-10047
분	-10048
ส	-10049
か	-10050
õ	-10051
פ	-10052
ς	-10053
🔓	-10054
व	-10055
数	-10056
립	-10057
כ	-10058
되	-10059
🤩	-10060
γ	-10061
ω	-10062
단	-10063
प	-10064
δ	-10065
和	-10066
체	-10067
غ	-10068
ח	-10069
장	-10070
개	-10071
├	-10072
게	-10073
선	-10074
这	-10075
と	-10076
식	-10077
조	-10078
😎	-10079
러	-10080
が	-10081
🏼	-10082
려	-10083
명	-10084
什	-10085
要	-10086
레	-10087
역	-10088
ק	-10089
ד	-10090
こ	-10091
问	-10092
❗	-10093
트	-10094
ё	-10095
な	-10096
为	-10097
우	-10098
ض	-10099
っ	-10100
구	-10101
샘	-10102
ल	-10103
안	-10104
치	-10105
만	-10106
«	-10107
ン	-10108
검	-10109
화	-10110
φ	-10111
계	-10112
변	-10113
🥗	-10114
함	-10115
性	-10116
题	-10117
두	-10118
공	-10119
야	-10120
ì	-10121
중	-10122
😍	-10123
成	-10124
설	-10125
ข	-10126
💻	-10127
य	-10128
생	-10129
Ф	-10130
관	-10131
ა	-10132
료	-10133
측	-10134
»	-10135
Ц	-10136
💥	-10137
¿	-10138
오	-10139
人	-10140
ん	-10141
ā	-10142
大	-10143
ạ	-10144
ס	-10145
무	-10146
학	-10147
유	-10148
ث	-10149
ो	-10150
능	-10151
👍	-10152
Δ	-10153
∂	-10154
신	-10155
저	-10156
く	-10157
없	-10158
上	-10159
거	-10160
독	-10161
了	-10162
미	-10163
う	-10164
表	-10165
영	-10166
ล	-10167
≈	-10168
본	-10169
答	-10170
บ	-10171
分	-10172
个	-10173
ù	-10174
天	-10175
子	-10176
ư	-10177
👋	-10178
¬	-10179
발	-10180
吗	-10181
데	-10182
あ	-10183
ग	-10184
≤	-10185
配	-10186
ệ	-10187
차	-10188
ί	-10189
ł	-10190
ุ	-10191
🔥	-10192
Ω	-10193
名	-10194
Ш	-10195
업	-10196
ż	-10197
צ	-10198
산	-10199
れ	-10200
回	-10201
력	-10202
예	-10203
ן	-10204
결	-10205
며	-10206
›	-10207
ต	-10208
더	-10209
ט	-10210
多	-10211
🎉	-10212
ò	-10213
Σ	-10214
⠀	-10215
통	-10216
파	-10217
ء	-10218
ห	-10219
터	-10220
ї	-10221
ể	-10222
り	-10223
줘	-10224
└	-10225
议	-10226
양	-10227
据	-10228
🐺	-10229
😉	-10230
置	-10231
🔒	-10232
ά	-10233
ら	-10234
き	-10235
日	-10236
같	-10237
추	-10238
점	-10239
ै	-10240
알	-10241
格	-10242
ज	-10243
语	-10244
量	-10245
표	-10246
ή	-10247
작	-10248
ป	-10249
ộ	-10250
Х	-10251
翻	-10252
车	-10253
═	-10254
力	-10255
จ	-10256
例	-10257
ć	-10258
ئ	-10259
동	-10260
🏻	-10261
특	-10262
έ	-10263
द	-10264
请	-10265
年	-10266
知	-10267
解	-10268
교	-10269
현	-10270
크	-10271
된	-10272
ु	-10273
字	-10274
당	-10275
╝	-10276
포	-10277
ό	-10278
Ã	-10279
ş	-10280
ช	-10281
生	-10282
您	-10283
果	-10284
타	-10285
ト	-10286
재	-10287
∞	-10288
★	-10289
ए	-10290
さ	-10291
女	-10292
번	-10293
使	-10294
반	-10295
질	-10296
출	-10297
ą	-10298
🌞	-10299
æ	-10300
ब	-10301
ế	-10302
●	-10303
很	-10304
物	-10305
є	-10306
帮	-10307
🏰	-10308
地	-10309
견	-10310
ใ	-10311
会	-10312
英	-10313
ス	-10314
无	-10315
ظ	-10316
イ	-10317
需	-10318
않	-10319
언	-10320
및	-10321
்	-10322
Л	-10323
∀	-10324
÷	-10325
å	-10326
译	-10327
💛	-10328
็	-10329
动	-10330
道	-10331
감	-10332
ყ	-10333
最	-10334
까	-10335
술	-10336
型	-10337
말	-10338
信	-10339
电	-10340
期	-10341
등	-10342
╔	-10343
ち	-10344
よ	-10345
া	-10346
🐞	-10347
따	-10348
😭	-10349
ś	-10350
때	-10351
또	-10352
매	-10353
提	-10354
규	-10355
확	-10356
グ	-10357
关	-10358
对	-10359
👣	-10360
ჰ	-10361
」	-10362
록	-10363
운	-10364
产	-10365
실	-10366
💕	-10367
민	-10368
😐	-10369
너	-10370
پ	-10371
入	-10372
각	-10373
었	-10374
연	-10375
件	-10376
👩	-10377
χ	-10378
ë	-10379
更	-10380
년	-10381
마	-10382
씨	-10383
ッ	-10384
♀	-10385
♂	-10386
色	-10387
른	-10388
직	-10389
手	-10390
프	-10391
「	-10392
だ	-10393
息	-10394
ი	-10395
号	-10396
초	-10397
ă	-10398
于	-10399
价	-10400
发	-10401
根	-10402
병	-10403
ג	-10404
처	-10405
😏	-10406
方	-10407
메	-10408
☑	-10409
到	-10410
理	-10411
했	-10412
码	-10413
래	-10414
说	-10415
行	-10416
ラ	-10417
助	-10418
됩	-10419
🥳	-10420
ğ	-10421
化	-10422
看	-10423
品	-10424
但	-10425
式	-10426
ę	-10427
新	-10428
후	-10429
형	-10430
श	-10431
ე	-10432
⣿	-10433
키	-10434
แ	-10435
プ	-10436
合	-10437
定	-10438
값	-10439
ř	-10440
ะ	-10441
ํ	-10442
🤖	-10443
系	-10444
델	-10445
👨	-10446
ู	-10447
后	-10448
备	-10449
난	-10450
⁡	-10451
等	-10452
녕	-10453
©	-10454
度	-10455
벨	-10456
👉	-10457
؟	-10458
च	-10459
内	-10460
ß	-10461
∈	-10462
∧	-10463
║	-10464
作	-10465
小	-10466
판	-10467
ღ	-10468
因	-10469
时	-10470
机	-10471
段	-10472
환	-10473
∇	-10474
】	-10475
💡	-10476
ả	-10477
ク	-10478
필	-10479
ً	-10480
も	-10481
답	-10482
́	-10483
최	-10484
육	-10485
少	-10486
马	-10487
ア	-10488
面	-10489
향	-10490
【	-10491
其	-10492
类	-10493
高	-10494
供	-10495
범	-10496
何	-10497
날	-10498
줄	-10499
比	-10500
많	-10501
불	-10502
칙	-10503
č	-10504
š	-10505
计	-10506
ơ	-10507
代	-10508
바	-10509
आ	-10510
存	-10511
É	-10512
¡	-10513
अ	-10514
⇒	-10515
学	-10516
特	-10517
ז	-10518
体	-10519
片	-10520
🚂	-10521
图	-10522
ს	-10523
👀	-10524
单	-10525
常	-10526
源	-10527
里	-10528
께	-10529
항	-10530
ˈ	-10531
ি	-10532
重	-10533
🍉	-10534
।	-10535
≥	-10536
え	-10537
گ	-10538
吞	-10539
器	-10540
🚀	-10541
उ	-10542
্	-10543
工	-10544
开	-10545
所	-10546
권	-10547
め	-10548
💋	-10549
ə	-10550
آ	-10551
ื	-10552
네	-10553
ध	-10554
ấ	-10555
ド	-10556
形	-10557
标	-10558
🌴	-10559
🌽	-10560
ð	-10561
怎	-10562
რ	-10563
明	-10564
르	-10565
😂	-10566
র	-10567
应	-10568
或	-10569
션	-10570
약	-10571
히	-10572
Ơ	-10573
つ	-10574
加	-10575
将	-10576
查	-10577
种	-10578
ி	-10579
情	-10580
过	-10581
준	-10582
플	-10583
Ε	-10584
พ	-10585
โ	-10586
向	-10587
编	-10588
름	-10589
ờ	-10590
ø	-10591
辆	-10592
💬	-10593
ề	-10594
意	-10595
水	-10596
택	-10597
§	-10598
배	-10599
„	-10600
他	-10601
来	-10602
案	-10603
见	-10604
겠	-10605
쟁	-10606
🧬	-10607
列	-10608
本	-10609
现	-10610
🌍	-10611
속	-10612
მ	-10613
ậ	-10614
全	-10615
버	-10616
ώ	-10617
せ	-10618
句	-10619
程	-10620
🙃	-10621
ė	-10622
ύ	-10623
َ	-10624
写	-10625
金	-10626
്	-10627
ษ	-10628
や	-10629
ル	-10630
🎶	-10631
ố	-10632
保	-10633
安	-10634
물	-10635
🐾	-10636
💔	-10637
भ	-10638
别	-10639
相	-10640
ý	-10641
ผ	-10642
ớ	-10643
∑	-10644
⠁	-10645
ロ	-10646
之	-10647
🌌	-10648
ど	-10649
シ	-10650
디	-10651
석	-10652
今	-10653
심	-10654
设	-10655
별	-10656
😳	-10657
画	-10658
示	-10659
ব	-10660
彼	-10661
模	-10662
🎁	-10663
ך	-10664
ვ	-10665
ợ	-10666
月	-10667
通	-10668
절	-10669
코	-10670
🌟	-10671
🏽	-10672
😘	-10673
点	-10674
ž	-10675
ू	-10676
取	-10677
私	-10678
औ	-10679
制	-10680
功	-10681
正	-10682
算	-10683
デ	-10684
些	-10685
뉴	-10686
💦	-10687
̐	-10688
交	-10689
值	-10690
反	-10691
感	-10692
목	-10693
დ	-10694
ნ	-10695
利	-10696
😅	-10697
ī	-10698
ụ	-10699
け	-10700
员	-10701
球	-10702
노	-10703
랑	-10704
❤	-10705
公	-10706
同	-10707
基	-10708
建	-10709
ǎ	-10710
⁄	-10711
想	-10712
气	-10713
容	-10714
言	-10715
강	-10716
ē	-10717
样	-10718
结	-10719
루	-10720
케	-10721
î	-10722
ณ	-10723
ủ	-10724
람	-10725
ण	-10726
タ	-10727
글	-10728
릴	-10729
블	-10730
좋	-10731
Â	-10732
哪	-10733
색	-10734
ক	-10735
집	-10736
징	-10737
🎂	-10738
💃	-10739
چ	-10740
ड	-10741
ữ	-10742
与	-10743
될	-10744
🟡	-10745
İ	-10746
ズ	-10747
当	-10748
部	-10749
ō	-10750
थ	-10751
ო	-10752
コ	-10753
口	-10754
目	-10755
询	-10756
💼	-10757
思	-10758
급	-10759
👦	-10760
📱	-10761
Α	-10762
₹	-10763
宝	-10764
款	-10765
流	-10766
者	-10767
花	-10768
猫	-10769
空	-10770
건	-10771
효	-10772
ภ	-10773
远	-10774
금	-10775
높	-10776
平	-10777
买	-10778
去	-10779
새	-10780
💰	-10781
质	-10782
받	-10783
🔍	-10784
景	-10785
条	-10786
테	-10787
품	-10788
ɪ	-10789
ന	-10790
心	-10791
종	-10792
😑	-10793
🧑	-10794
அ	-10795
永	-10796
령	-10797
😄	-10798
ọ	-10799
ു	-10800
实	-10801
资	-10802
떤	-10803
🍈	-10804
ट	-10805
服	-10806
风	-10807
움	-10808
🏖	-10809
海	-10810
복	-10811
았	-10812
🥰	-10813
Π	-10814
ị	-10815
テ	-10816
山	-10817
市	-10818
美	-10819
长	-10820
열	-10821
ন	-10822
改	-10823
次	-10824
给	-10825
裤	-10826
🏆	-10827
ে	-10828
க	-10829
ถ	-10830
≠	-10831
斯	-10832
签	-10833
든	-10834
십	-10835
취	-10836
◊	-10837
み	-10838
克	-10839
包	-10840
外	-10841
得	-10842
经	-10843
装	-10844
话	-10845
🌅	-10846
🤗	-10847
わ	-10848
リ	-10849
户	-10850
근	-10851
잘	-10852
़	-10853
ミ	-10854
・	-10855
序	-10856
指	-10857
白	-10858
옵	-10859
임	-10860
გ	-10861
先	-10862
决	-10863
刀	-10864
额	-10865
접	-10866
책	-10867
카	-10868
ؤ	-10869
์	-10870
那	-10871
밥	-10872
태	-10873
🛠	-10874
̄	-10875
외	-10876
워	-10877
째	-10878
토	-10879
ി	-10880
ặ	-10881
谁	-10882
련	-10883
🌿	-10884
ξ	-10885
ِ	-10886
ക	-10887
チ	-10888
并	-10889
该	-10890
낮	-10891
💖	-10892
এ	-10893
∩	-10894
三	-10895
游	-10896
记	-10897
Ж	-10898
ष	-10899
த	-10900
易	-10901
确	-10902
释	-10903
ự	-10904
‐	-10905
接	-10906
星	-10907
此	-10908
素	-10909
맞	-10910
😜	-10911
ு	-10912
∨	-10913
そ	-10914
バ	-10915
🤭	-10916
ख	-10917
უ	-10918
ỏ	-10919
ử	-10920
‣	-10921
≡	-10922
主	-10923
率	-10924
适	-10925
食	-10926
류	-10927
머	-10928
Κ	-10929
修	-10930
原	-10931
家	-10932
影	-10933
杠	-10934
费	-10935
져	-10936
🎈	-10937
🔫	-10938
ბ	-10939
←	-10940
⊃	-10941
✅	-10942
变	-10943
叶	-10944
房	-10945
斜	-10946
電	-10947
컨	-10948
평	-10949
Τ	-10950
ম	-10951
ோ	-10952
∘	-10953
具	-10954
注	-10955
爱	-10956
线	-10957
천	-10958
험	-10959
🦱	-10960
ń	-10961
ள	-10962
消	-10963
选	-10964
🌀	-10965
ǐ	-10966
ธ	-10967
ィ	-10968
活	-10969
网	-10970
间	-10971
롤	-10972
암	-10973
ய	-10974
ჩ	-10975
起	-10976
開	-10977
올	-10978
👈	-10979
ᴛ	-10980
份	-10981
测	-10982
规	-10983
허	-10984
ლ	-10985
位	-10986
录	-10987
拉	-10988
缀	-10989
验	-10990
	-10991
🧒	-10992
வ	-10993
ᚱ	-10994
ᴇ	-10995
∣	-10996
✨	-10997
ぁ	-10998
メ	-10999
技	-11000
황	-11001
😙	-11002
¥	-11003
ి	-11004
თ	-11005
引	-11006
索	-11007
💚	-11008
😱	-11009
ζ	-11010
ல	-11011
及	-11012
商	-11013
室	-11014
获	-11015
🌸	-11016
Η	-11017
∪	-11018
事	-11019
前	-11020
始	-11021
密	-11022
就	-11023
状	-11024
米	-11025
였	-11026
활	-11027
🏊	-11028
🤓	-11029
Ν	-11030
ْ	-11031
ở	-11032
◦	-11033
キ	-11034
二	-11035
料	-11036
章	-11037
词	-11038
运	-11039
애	-11040
죄	-11041
👢	-11042
̥	-11043
ہ	-11044
▒	-11045
ウ	-11046
フ	-11047
五	-11048
务	-11049
否	-11050
求	-11051
细	-11052
記	-11053
싶	-11054
창	-11055
투	-11056
😴	-11057
झ	-11058
ా	-11059
ゃ	-11060
ャ	-11061
已	-11062
直	-11063
立	-11064
而	-11065
찰	-11066
회	-11067
💤	-11068
📝	-11069
ș	-11070
Ο	-11071
ు	-11072
付	-11073
展	-11074
许	-11075
남	-11076
느	-11077
브	-11078
울	-11079
国	-11080
找	-11081
积	-11082
购	-11083
足	-11084
造	-11085
都	-11086
🐶	-11087
ল	-11088
স	-11089
レ	-11090
业	-11091
光	-11092
区	-11093
戏	-11094
教	-11095
符	-11096
还	-11097
늘	-11098
티	-11099
🌧	-11100
💨	-11101
🤝	-11102
ï	-11103
û	-11104
इ	-11105
ญ	-11106
カ	-11107
們	-11108
城	-11109
客	-11110
视	-11111
评	-11112
뢰	-11113
🇷	-11114
🐦	-11115
Λ	-11116
छ	-11117
ভ	-11118
ฉ	-11119
参	-11120
見	-11121
떻	-11122
링	-11123
볼	-11124
순	-11125
ற	-11126
ầ	-11127
ご	-11128
充	-11129
被	-11130
识	-11131
質	-11132
述	-11133
集	-11134
걸	-11135
못	-11136
ě	-11137
ź	-11138
প	-11139
パ	-11140
店	-11141
括	-11142
析	-11143
波	-11144
石	-11145
考	-11146
论	-11147
격	-11148
친	-11149
👧	-11150
Ι	-11151
⃣	-11152
ジ	-11153
控	-11154
推	-11155
즉	-11156
🎵	-11157
🤯	-11158
ば	-11159
介	-11160
司	-11161
快	-11162
放	-11163
每	-11164
科	-11165
较	-11166
군	-11167
채	-11168
🎨	-11169
🤨	-11170
Ø	-11171
ね	-11172
万	-11173
世	-11174
受	-11175
四	-11176
然	-11177
超	-11178
김	-11179
북	-11180
피	-11181
👌	-11182
Γ	-11183
ψ	-11184
ּ	-11185
ے	-11186
য	-11187
べ	-11188
ニ	-11189
優	-11190
华	-11191
只	-11192
界	-11193
녁	-11194
페	-11195
🍷	-11196
ų	-11197
○	-11198
げ	-11199
告	-11200
探	-11201
权	-11202
路	-11203
월	-11204
팅	-11205
🍕	-11206
👾	-11207
💜	-11208
🔬	-11209
🚗	-11210
ứ	-11211
ム	-11212
两	-11213
也	-11214
元	-11215
疗	-11216
统	-11217
엇	-11218
혈	-11219
🔄	-11220
🩸	-11221
ং	-11222
况	-11223
問	-11224
姐	-11225
男	-11226
🙏	-11227
फ	-11228
న	-11229
ര	-11230
ჳ	-11231
含	-11232
检	-11233
润	-11234
载	-11235
速	-11236
魔	-11237
달	-11238
량	-11239
💫	-11240
💭	-11241
ū	-11242
ছ	-11243
∃	-11244
从	-11245
変	-11246
降	-11247
률	-11248
율	-11249
익	-11250
😔	-11251
😚	-11252
🦠	-11253
ᴏ	-11254
∴	-11255
六	-11256
又	-11257
售	-11258
士	-11259
复	-11260
姓	-11261
预	-11262
길	-11263
🌳	-11264
😗	-11265
🧐	-11266
Ö	-11267
Θ	-11268
Ρ	-11269
导	-11270
布	-11271
总	-11272
效	-11273
极	-11274
满	-11275
版	-11276
耗	-11277
語	-11278
达	-11279
连	-11280
限	-11281
린	-11282
척	-11283
총	-11284
협	-11285
📚	-11286
😮	-11287
Å	-11288
Φ	-11289
ُ	-11290
ᆞ	-11291
ἀ	-11292
╬	-11293
做	-11294
减	-11295
头	-11296
称	-11297
멍	-11298
뭐	-11299
존	-11300
편	-11301
🍔	-11302
🚨	-11303
🤷	-11304
І	-11305
Ы	-11306
Ю	-11307
ర	-11308
∆	-11309
▪	-11310
ブ	-11311
モ	-11312
书	-11313
优	-11314
吃	-11315
員	-11316
幫	-11317
持	-11318
未	-11319
歳	-11320
绍	-11321
近	-11322
销	-11323
럼	-11324
🎯	-11325
🏃	-11326
🖥	-11327
̸	-11328
☐	-11329
传	-11330
几	-11331
场	-11332
术	-11333
気	-11334
着	-11335
证	-11336
非	-11337
좌	-11338
🌈	-11339
🏉	-11340
👶	-11341
Đ	-11342
ত	-11343
サ	-11344
マ	-11345
吸	-11346
境	-11347
峰	-11348
库	-11349
打	-11350
抽	-11351
让	-11352
누	-11353
송	-11354
🍵	-11355
🏐	-11356
👗	-11357
💯	-11358
Ü	-11359
ַ	-11360
ồ	-11361
♥	-11362
✈	-11363
ュ	-11364
兰	-11365
则	-11366
味	-11367
张	-11368
态	-11369
玻	-11370
病	-11371
結	-11372
身	-11373
顔	-11374
란	-11375
참	-11376
💩	-11377
😬	-11378
ฐ	-11379
■	-11380
✓	-11381
乐	-11382
尖	-11383
报	-11384
材	-11385
构	-11386
河	-11387
研	-11388
譯	-11389
酸	-11390
램	-11391
액	-11392
완	-11393
찾	-11394
충	-11395
	-11396
🌦	-11397
🛍	-11398
Ä	-11399
ხ	-11400
ẽ	-11401
ừ	-11402
且	-11403
任	-11404
换	-11405
璃	-11406
百	-11407
组	-11408
调	-11409
采	-11410
项	-11411
🌐	-11412
🐱	-11413
🤦	-11414
ְ	-11415
ষ	-11416
♦	-11417
セ	-11418
协	-11419
均	-11420
处	-11421
岁	-11422
止	-11423
环	-11424
练	-11425
续	-11426
门	-11427
👙	-11428
💗	-11429
🤮	-11430
ː	-11431
Μ	-11432
ִ	-11433
ா	-11434
場	-11435
描	-11436
業	-11437
转	-11438
😀	-11439
Щ	-11440
ָ	-11441
ன	-11442
ం	-11443
╗	-11444
刘	-11445
創	-11446
圆	-11447
尽	-11448
德	-11449
換	-11450
散	-11451
為	-11452
썬	-11453
템	-11454
🦙	-11455
ビ	-11456
准	-11457
動	-11458
投	-11459
核	-11460
步	-11461
洞	-11462
牙	-11463
発	-11464
缩	-11465
货	-11466
론	-11467
앱	-11468
Č	-11469
ʜ	-11470
ট	-11471
尔	-11472
書	-11473
清	-11474
究	-11475
节	-11476
荐	-11477
雨	-11478
넷	-11479
망	-11480
폴	-11481
🏠	-11482
🐠	-11483
👥	-11484
🧘	-11485
Ć	-11486
函	-11487
半	-11488
吖	-11489
左	-11490
胡	-11491
褶	-11492
途	-11493
던	-11494
봇	-11495
온	-11496
침	-11497
🏋	-11498
😺	-11499
̂	-11500
义	-11501
剂	-11502
剃	-11503
叫	-11504
右	-11505
启	-11506
報	-11507
属	-11508
收	-11509
智	-11510
热	-11511
离	-11512
秀	-11513
稀	-11514
约	-11515
训	-11516
输	-11517
错	-11518
객	-11519
🌡	-11520
💀	-11521
😡	-11522
È	-11523
ő	-11524
伝	-11525
估	-11526
倒	-11527
八	-11528
升	-11529
必	-11530
毛	-11531
票	-11532
苹	-11533
观	-11534
音	-11535
鬚	-11536
녀	-11537
족	-11538
클	-11539
	-11540
ǒ	-11541
ᚢ	-11542
ᚴ	-11543
ᴀ	-11544
‚	-11545
ょ	-11546
像	-11547
哈	-11548
実	-11549
漏	-11550
糖	-11551
络	-11552
认	-11553
首	-11554
麼	-11555
담	-11556
렇	-11557
살	-11558
써	-11559
왕	-11560
큰	-11561
	-11562
～	-11563
🌱	-11564
💙	-11565
Ÿ	-11566
ɛ	-11567
Й	-11568
ّ	-11569
ढ	-11570
ம	-11571
യ	-11572
⋯	-11573
ソ	-11574
初	-11575
各	-11576
师	-11577
概	-11578
爸	-11579
读	-11580
득	-11581
몇	-11582
몰	-11583
악	-11584
🙌	-11585
ǵ	-11586
ׁ	-11587
♞	-11588
⚠	-11589
⟩	-11590
ワ	-11591
南	-11592
听	-11593
嗎	-11594
显	-11595
木	-11596
氧	-11597
深	-11598
由	-11599
蛋	-11600
进	-11601
麦	-11602
랫	-11603
멀	-11604
ப	-11605
丽	-11606
住	-11607
击	-11608
创	-11609
呢	-11610
增	-11611
太	-11612
真	-11613
線	-11614
런	-11615
앞	-11616
🌎	-11617
🎾	-11618
🏹	-11619
🧠	-11620
̅	-11621
ศ	-11622
ึ	-11623
†	-11624
依	-11625
射	-11626
掉	-11627
断	-11628
曲	-11629
歩	-11630
治	-11631
火	-11632
現	-11633
神	-11634
端	-11635
精	-11636
边	-11637
넣	-11638
맛	-11639
베	-11640
엔	-11641
즈	-11642
즐	-11643
폼	-11644
🍹	-11645
👻	-11646
📈	-11647
📸	-11648
̴	-11649
̷	-11650
医	-11651
卡	-11652
望	-11653
様	-11654
烟	-11655
管	-11656
西	-11657
패	-11658
퍼	-11659
😽	-11660
😾	-11661
🤣	-11662
ņ	-11663
వ	-11664
⍝	-11665
╚	-11666
❱	-11667
ツ	-11668
個	-11669
储	-11670
再	-11671
失	-11672
套	-11673
整	-11674
機	-11675
烧	-11676
牌	-11677
穿	-11678
笑	-11679
红	-11680
范	-11681
衣	-11682
袋	-11683
訳	-11684
试	-11685
诗	-11686
龄	-11687
므	-11688
욱	-11689
즘	-11690
폭	-11691
🌲	-11692
👹	-11693
😼	-11694
🤑	-11695
🤘	-11696
Ь	-11697
კ	-11698
⁠	-11699
ぅ	-11700
册	-11701
响	-11702
她	-11703
强	-11704
旅	-11705
柱	-11706
独	-11707
癌	-11708
简	-11709
聊	-11710
背	-11711
药	-11712
쉽	-11713
웨	-11714
첫	-11715
텍	-11716
획	-11717
🇮	-11718
🇹	-11719
💓	-11720
💾	-11721
📞	-11722
😆	-11723
¶	-11724
Ş	-11725
̵	-11726
̶	-11727
ை	-11728
్	-11729
ᴅ	-11730
ắ	-11731
ổ	-11732
⚔	-11733
ガ	-11734
判	-11735
即	-11736
友	-11737
呼	-11738
块	-11739
婚	-11740
對	-11741
差	-11742
择	-11743
按	-11744
排	-11745
昨	-11746
硬	-11747
移	-11748
胞	-11749
航	-11750
诉	-11751
먼	-11752
🌾	-11753
🎓	-11754
🏞	-11755
🔧	-11756
😟	-11757
😻	-11758
😿	-11759
🤪	-11760
¢	-11761
ʿ	-11762
״	-11763
உ	-11764
പ	-11765
අ	-11766
ḱ	-11767
ẻ	-11768
⊆	-11769
亚	-11770
働	-11771
咨	-11772
土	-11773
征	-11774
徴	-11775
某	-11776
構	-11777
欢	-11778
稼	-11779
飞	-11780
긴	-11781
략	-11782
먹	-11783
🎥	-11784
🐉	-11785
🐬	-11786
🔎	-11787
🗣	-11788
😋	-11789
😯	-11790
🥹	-11791
ț	-11792
ỗ	-11793
∗	-11794
∠	-11795
⊕	-11796
ず	-11797
ェ	-11798
低	-11799
周	-11800
奥	-11801
完	-11802
层	-11803
币	-11804
待	-11805
念	-11806
悪	-11807
攻	-11808
早	-11809
板	-11810
照	-11811
牛	-11812
申	-11813
痛	-11814
育	-11815
致	-11816
订	-11817
谢	-11818
键	-11819
関	-11820
际	-11821
끝	-11822
넓	-11823
딩	-11824
렌	-11825
혼	-11826
🇬	-11827
🔮	-11828
😕	-11829
😸	-11830
Ç	-11831
Ś	-11832
ʀ	-11833
ौ	-11834
থ	-11835
়	-11836
ু	-11837
ட	-11838
ల	-11839
ഗ	-11840
ത	-11841
ๆ	-11842
ტ	-11843
შ	-11844
✂	-11845
オ	-11846
域	-11847
夜	-11848
带	-11849
従	-11850
微	-11851
插	-11852
涨	-11853
级	-11854
老	-11855
随	-11856
ꜱ	-11857
꾸	-11858
청	-11859
픈	-11860
🇫	-11861
🇺	-11862
🌃	-11863
😹	-11864
ँ	-11865
ప	-11866
ാ	-11867
ὸ	-11868
ぶ	-11869
专	-11870
兴	-11871
北	-11872
十	-11873
战	-11874
映	-11875
春	-11876
晚	-11877
症	-11878
矩	-11879
秒	-11880
篇	-11881
缘	-11882
著	-11883
醒	-11884
钻	-11885
飛	-11886
붙	-11887
손	-11888
응	-11889
잡	-11890
🇸	-11891
🚩	-11892
ů	-11893
ɴ	-11894
ऐ	-11895
খ	-11896
ர	-11897
ട	-11898
മ	-11899
വ	-11900
ൂ	-11901
ằ	-11902
⊤	-11903
◯	-11904
》	-11905
エ	-11906
共	-11907
千	-11908
應	-11909
標	-11910
決	-11911
珠	-11912
纳	-11913
肉	-11914
腰	-11915
觉	-11916
迷	-11917
韓	-11918
餐	-11919
갈	-11920
돈	-11921
릭	-11922
승	-11923
앙	-11924
폰	-11925
💆	-11926
Υ	-11927
ں	-11928
আ	-11929
∙	-11930
⚕	-11931
京	-11932
刚	-11933
剩	-11934
啥	-11935
喜	-11936
寂	-11937
座	-11938
役	-11939
忙	-11940
批	-11941
液	-11942
無	-11943
瓶	-11944
網	-11945
纹	-11946
绝	-11947
蓝	-11948
術	-11949
設	-11950
話	-11951
뜻	-11952
봐	-11953
봤	-11954
읽	-11955
혜	-11956
🎬	-11957
💸	-11958
Á	-11959
̈	-11960
ֹ	-11961
ഒ	-11962
წ	-11963
ễ	-11964
☹	-11965
亮	-11966
健	-11967
免	-11968
典	-11969
办	-11970
园	-11971
寞	-11972
尼	-11973
枚	-11974
欧	-11975
洗	-11976
演	-11977
短	-11978
確	-11979
维	-11980
聞	-11981
覚	-11982
误	-11983
越	-11984
辑	-11985
返	-11986
追	-11987
链	-11988
锅	-11989
频	-11990
鱼	-11991
닉	-11992
둘	-11993
듈	-11994
랜	-11995
몬	-11996
씩	-11997
옷	-11998
챗	-11999
팁	-12000
휴	-12001
🙄	-12002
̯	-12003
ം	-12004
െ	-12005
《	-12006
ざ	-12007
便	-12008
另	-12009
够	-12010
守	-12011
官	-12012
戶	-12013
才	-12014
抗	-12015
汽	-12016
略	-12017
箱	-12018
缓	-12019
缪	-12020
肝	-12021
腹	-12022
良	-12023
草	-12024
蔑	-12025
請	-12026
走	-12027
車	-12028
软	-12029
透	-12030
適	-12031
阳	-12032
险	-12033
雾	-12034
驶	-12035
슬	-12036
얻	-12037
칩	-12038
💞	-12039
📺	-12040
🚫	-12041
🥫	-12042
🧤	-12043
ĩ	-12044
ɑ	-12045
ˆ	-12046
ऑ	-12047
অ	-12048
ഹ	-12049
ც	-12050
⌈	-12051
ァ	-12052
ノ	-12053
允	-12054
呀	-12055
対	-12056
尊	-12057
康	-12058
异	-12059
承	-12060
摘	-12061
普	-12062
替	-12063
李	-12064
毒	-12065
激	-12066
琳	-12067
留	-12068
累	-12069
股	-12070
落	-12071
角	-12072
讲	-12073
跌	-12074
钱	-12075
防	-12076
除	-12077
題	-12078
驾	-12079
갖	-12080
껴	-12081
냅	-12082
막	-12083
빠	-12084
센	-12085
얼	-12086
좀	-12087
컴	-12088
팀	-12089
🐰	-12090
💅	-12091
📊	-12092
🔴	-12093
🕰	-12094
🥺	-12095
œ	-12096
Š	-12097
ť	-12098
ओ	-12099
ণ	-12100
দ	-12101
இ	-12102
గ	-12103
ോ	-12104
┼	-12105
ぴ	-12106
匹	-12107
双	-12108
吉	-12109
哦	-12110
啊	-12111
声	-12112
支	-12113
架	-12114
歌	-12115
班	-12116
缺	-12117
豪	-12118
香	-12119
광	-12120
돌	-12121
렵	-12122
밍	-12123
축	-12124
👛	-12125
😃	-12126
̃	-12127
̧	-12128
ژ	-12129
ই	-12130
ও	-12131
ജ	-12132
ფ	-12133
↩	-12134
≺	-12135
ゆ	-12136
丹	-12137
乌	-12138
乱	-12139
孤	-12140
宇	-12141
护	-12142
抱	-12143
敏	-12144
校	-12145
池	-12146
盒	-12147
羊	-12148
荒	-12149
萄	-12150
葡	-12151
负	-12152
闭	-12153
響	-12154
願	-12155
馆	-12156
龍	-12157
귀	-12158
닝	-12159
림	-12160
벌	-12161
염	-12162
핵	-12163
	-12164
🌺	-12165
🍲	-12166
🍴	-12167
🛬	-12168
ɡ	-12169
Χ	-12170
Ў	-12171
ே	-12172
ట	-12173
ネ	-12174
ピ	-12175
冷	-12176
压	-12177
呗	-12178
唔	-12179
广	-12180
弧	-12181
朋	-12182
植	-12183
楽	-12184
汉	-12185
没	-12186
油	-12187
漠	-12188
番	-12189
终	-12190
联	-12191
認	-12192
详	-12193
跃	-12194
跳	-12195
長	-12196
體	-12197
鸟	-12198
렬	-12199
졌	-12200
켰	-12201
퓨	-12202
희	-12203
	-12204
🌪	-12205
🍆	-12206
🐝	-12207
📰	-12208
🗑	-12209
😠	-12210
ई	-12211
ृ	-12212
ந	-12213
మ	-12214
ෙ	-12215
ซ	-12216
ქ	-12217
ỹ	-12218
‰	-12219
⍵	-12220
じ	-12221
び	-12222
ろ	-12223
企	-12224
倍	-12225
候	-12226
偏	-12227
儿	-12228
內	-12229
养	-12230
凑	-12231
卫	-12232
寻	-12233
屋	-12234
干	-12235
幾	-12236
後	-12237
恶	-12238
染	-12239
歉	-12240
泰	-12241
添	-12242
狮	-12243
王	-12244
盘	-12245
童	-12246
第	-12247
続	-12248
继	-12249
義	-12250
雪	-12251
霉	-12252
青	-12253
겨	-12254
곳	-12255
끼	-12256
념	-12257
논	-12258
벤	-12259
숫	-12260
쓰	-12261
씀	-12262
콘	-12263
팩	-12264
픽	-12265
헌	-12266
🌠	-12267
🕶	-12268
🥩	-12269
Õ	-12270
ƒ	-12271
ـ	-12272
ழ	-12273
డ	-12274
ᴜ	-12275
ḥ	-12276
ỉ	-12277
⏰	-12278
ひ	-12279
ダ	-12280
余	-12281
切	-12282
博	-12283
台	-12284
吧	-12285
塔	-12286
奶	-12287
害	-12288
於	-12289
族	-12290
欲	-12291
燃	-12292
益	-12293
礼	-12294
社	-12295
站	-12296
舒	-12297
菜	-12298
裙	-12299
账	-12300
赛	-12301
酒	-12302
阿	-12303
饰	-12304
點	-12305
눈	-12306
됐	-12307
뒤	-12308
락	-12309
례	-12310
삼	-12311
숙	-12312
슨	-12313
윤	-12314
쪽	-12315
켜	-12316
털	-12317
풍	-12318
훈	-12319
🇵	-12320
🌻	-12321
🎮	-12322
🐮	-12323
😒	-12324
😨	-12325
🙂	-12326
🤠	-12327
🥶	-12328
🧔	-12329
Î	-12330
ǔ	-12331
Ș	-12332
ɔ	-12333
ʊ	-12334
ʏ	-12335
ॉ	-12336
শ	-12337
ീ	-12338
་	-12339
ᴡ	-12340
♝	-12341
⣀	-12342
ベ	-12343
七	-12344
並	-12345
争	-12346
停	-12347
冰	-12348
刊	-12349
势	-12350
厨	-12351
國	-12352
威	-12353
富	-12354
岛	-12355
強	-12356
応	-12357
扭	-12358
折	-12359
拳	-12360
氣	-12361
浦	-12362
犯	-12363
瓦	-12364
種	-12365
粒	-12366
脂	-12367
营	-12368
虑	-12369
遊	-12370
黄	-12371
黑	-12372
벗	-12373
삶	-12374
섹	-12375
줍	-12376
킨	-12377
턴	-12378
혁	-12379
🎊	-12380
🐓	-12381
🔨	-12382
😌	-12383
🥕	-12384
🫡	-12385
Ó	-12386
ʟ	-12387
घ	-12388
క	-12389
ె	-12390
ൊ	-12391
ය	-12392
≅	-12393
☀	-12394
ナ	-12395
侵	-12396
围	-12397
奖	-12398
扫	-12399
拍	-12400
摩	-12401
施	-12402
晴	-12403
會	-12404
杂	-12405
树	-12406
桃	-12407
框	-12408
歪	-12409
母	-12410
氢	-12411
疑	-12412
疲	-12413
省	-12414
破	-12415
碳	-12416
策	-12417
职	-12418
裁	-12419
讓	-12420
迎	-12421
遗	-12422
雄	-12423
낼	-12424
밀	-12425
빼	-12426
셋	-12427
압	-12428
짜	-12429
흐	-12430
🌬	-12431
🏝	-12432
👊	-12433
💎	-12434
📁	-12435
🔆	-12436
🔑	-12437
🔝	-12438
🔪	-12439
¤	-12440
ʒ	-12441
͡	-12442
ठ	-12443
গ	-12444
ফ	-12445
ആ	-12446
ൽ	-12447
ට	-12448
ᄅ	-12449
Ꭼ	-12450
ᴄ	-12451
ḗ	-12452
┤	-12453
▢	-12454
▶	-12455
❌	-12456
ョ	-12457
予	-12458
仅	-12459
倾	-12460
冲	-12461
凉	-12462
割	-12463
単	-12464
喚	-12465
坏	-12466
居	-12467
扩	-12468
拥	-12469
擎	-12470
政	-12471
東	-12472
松	-12473
民	-12474
沙	-12475
洲	-12476
涉	-12477
済	-12478
田	-12479
磁	-12480
稳	-12481
積	-12482
繁	-12483
织	-12484
耳	-12485
腿	-12486
至	-12487
計	-12488
資	-12489
责	-12490
趋	-12491
趣	-12492
過	-12493
違	-12494
避	-12495
阔	-12496
阻	-12497
领	-12498
궁	-12499
꿔	-12500
났	-12501
맵	-12502
봉	-12503
셨	-12504
젝	-12505
켓	-12506
틀	-12507
🍺	-12508
🎭	-12509
🏙	-12510
👏	-12511
👑	-12512
📣	-12513
🔋	-12514
🔐	-12515
🔦	-12516
😫	-12517
🥵	-12518
🧙	-12519
ʃ	-12520
Ψ	-12521
Ъ	-12522
ী	-12523
ஹ	-12524
ఇ	-12525
య	-12526
ല	-12527
ප	-12528
ẹ	-12529
⇌	-12530
⍴	-12531
☇	-12532
♚	-12533
✰	-12534
⠉	-12535
む	-12536
ポ	-12537
丰	-12538
举	-12539
乳	-12540
劳	-12541
咗	-12542
址	-12543
孩	-12544
循	-12545
搜	-12546
數	-12547
杨	-12548
棋	-12549
狗	-12550
終	-12551
絕	-12552
聚	-12553
胃	-12554
胸	-12555
萬	-12556
虚	-12557
蜜	-12558
补	-12559
距	-12560
逾	-12561
铲	-12562
饮	-12563
鲜	-12564
덱	-12565
둔	-12566
딥	-12567
맥	-12568
셀	-12569
융	-12570
킬	-12571
🇪	-12572
🍝	-12573
🏢	-12574
🏫	-12575
🐄	-12576
👁	-12577
💧	-12578
💿	-12579
📢	-12580
📩	-12581
📲	-12582
😞	-12583
😤	-12584
🦉	-12585
🦰	-12586
Í	-12587
Ñ	-12588
Є	-12589
ٍ	-12590
ھ	-12591
۶	-12592
۹	-12593
উ	-12594
எ	-12595
ங	-12596
ో	-12597
ണ	-12598
ദ	-12599
ഴ	-12600
ฒ	-12601
መ	-12602
ẩ	-12603
ἐ	-12604
≃	-12605
⌋	-12606
⌫	-12607
╰	-12608
✔	-12609
⠿	-12610
⣶	-12611
东	-12612
乘	-12613
印	-12614
历	-12615
哋	-12616
哲	-12617
嘅	-12618
囤	-12619
夏	-12620
帆	-12621
弹	-12622
扮	-12623
抑	-12624
擬	-12625
故	-12626
歧	-12627
歸	-12628
稅	-12629
簡	-12630
約	-12631
統	-12632
纠	-12633
罗	-12634
肠	-12635
血	-12636
裏	-12637
触	-12638
象	-12639
達	-12640
遠	-12641
陨	-12642
類	-12643
颜	-12644
박	-12645
빅	-12646
셔	-12647
슷	-12648
억	-12649
왜	-12650
죽	-12651
찮	-12652
철	-12653
칭	-12654
큼	-12655
🍎	-12656
🍟	-12657
🎤	-12658
👔	-12659
💁	-12660
🖱	-12661
😷	-12662
🤍	-12663
🤕	-12664
¦	-12665
ʌ	-12666
ʙ	-12667
̇	-12668
శ	-12669
స	-12670
ൾ	-12671
ὶ	-12672
⊢	-12673
⭐	-12674
々	-12675
ケ	-12676
ボ	-12677
値	-12678
刻	-12679
午	-12680
吹	-12681
固	-12682
填	-12683
夕	-12684
姿	-12685
府	-12686
廣	-12687
托	-12688
执	-12689
極	-12690
江	-12691
济	-12692
混	-12693
煤	-12694
玩	-12695
登	-12696
竞	-12697
粤	-12698
糕	-12699
紧	-12700
罪	-12701
群	-12702
胰	-12703
脚	-12704
菌	-12705
試	-12706
論	-12707
識	-12708
讨	-12709
負	-12710
贝	-12711
财	-12712
送	-12713
野	-12714
間	-12715
關	-12716
闸	-12717
隐	-12718
韩	-12719
頂	-12720
風	-12721
饭	-12722
駅	-12723
겪	-12724
믹	-12725
샵	-12726
웹	-12727
잠	-12728
츠	-12729
킹	-12730
팝	-12731
흜	-12732
	-12733
🌄	-12734
🍳	-12735
🎄	-12736
👕	-12737
📋	-12738
🛣	-12739
🦳	-12740
ľ	-12741
Տ	-12742
ֶ	-12743
۔	-12744
জ	-12745
ধ	-12746
ண	-12747
ച	-12748
ත	-12749
ฟ	-12750
Ꭰ	-12751
⋆	-12752
♛	-12753
⡀	-12754
⢀	-12755
⣤	-12756
『	-12757
ぎ	-12758
丑	-12759
仪	-12760
俄	-12761
假	-12762
古	-12763
哥	-12764
夢	-12765
奇	-12766
律	-12767
愉	-12768
截	-12769
招	-12770
拼	-12771
播	-12772
暖	-12773
暗	-12774
検	-12775
楼	-12776
武	-12777
毫	-12778
汇	-12779
渗	-12780
焼	-12781
税	-12782
粉	-12783
紫	-12784
經	-12785
纯	-12786
绪	-12787
脑	-12788
般	-12789
芝	-12790
芬	-12791
苏	-12792
荷	-12793
街	-12794
詳	-12795
誉	-12796
説	-12797
跟	-12798
辛	-12799
這	-12800
遇	-12801
酪	-12802
铁	-12803
隘	-12804
难	-12805
霜	-12806
露	-12807
頭	-12808
页	-12809
馬	-12810
骨	-12811
鲤	-12812
鼓	-12813
괜	-12814
덴	-12815
릿	-12816
뭔	-12817
백	-12818
솔	-12819
탄	-12820
탐	-12821
텐	-12822
툴	-12823
튀	-12824
휘	-12825
🇱	-12826
🏛	-12827
🐥	-12828
🙅	-12829
🤤	-12830
À	-12831
Β	-12832
ѕ	-12833
ն	-12834
ף	-12835
ץ	-12836
ீ	-12837
ద	-12838
ై	-12839
റ	-12840
ද	-12841
ฆ	-12842
ሚ	-12843
የ	-12844
↑	-12845
⍺	-12846
☒	-12847
➡	-12848
ほ	-12849
似	-12850
來	-12851
円	-12852
净	-12853
励	-12854
勇	-12855
危	-12856
厅	-12857
參	-12858
史	-12859
叹	-12860
唐	-12861
困	-12862
娘	-12863
季	-12864
宙	-12865
宽	-12866
宿	-12867
局	-12868
弟	-12869
弱	-12870
往	-12871
忘	-12872
時	-12873
沸	-12874
港	-12875
父	-12876
疾	-12877
穷	-12878
耐	-12879
胺	-12880
薯	-12881
蛇	-12882
诚	-12883
責	-12884
軽	-12885
障	-12886
饼	-12887
驱	-12888
鼠	-12889
극	-12890
끌	-12891
덜	-12892
떨	-12893
룹	-12894
빈	-12895
빛	-12896
셈	-12897
왔	-12898
젠	-12899
콜	-12900
톻	-12901
팬	-12902
홍	-12903
🍪	-12904
🍽	-12905
💉	-12906
💊	-12907
📡	-12908
🖤	-12909
😲	-12910
🚶	-12911
🛋	-12912
🛫	-12913
🛵	-12914
🤞	-12915
🦲	-12916
🧡	-12917
Ú	-12918
ÿ	-12919
ʻ	-12920
˨	-12921
Ϸ	-12922
Њ	-12923
ђ	-12924
ԏ	-12925
ե	-12926
త	-12927
ങ	-12928
ზ	-12929
ჯ	-12930
ሉ	-12931
Ꭱ	-12932
ḿ	-12933
ὼ	-12934
ῆ	-12935
‽	-12936
⎢	-12937
◕	-12938
◻	-12939
⡿	-12940
⢿	-12941
⣷	-12942
⣾	-12943
ぉ	-12944
ふ	-12945
ぽ	-12946
ゥ	-12947
ォ	-12948
ザ	-12949
ハ	-12950
ホ	-12951
串	-12952
云	-12953
伤	-12954
冠	-12955
凤	-12956
別	-12957
務	-12958
區	-12959
坐	-12960
坚	-12961
培	-12962
奔	-12963
察	-12964
寸	-12965
尾	-12966
尿	-12967
巴	-12968
希	-12969
広	-12970
彩	-12971
径	-12972
懂	-12973
抢	-12974
挑	-12975
振	-12976
敬	-12977
晨	-12978
暴	-12979
梦	-12980
滤	-12981
灭	-12982
熟	-12983
瑞	-12984
睡	-12985
祈	-12986
祷	-12987
秋	-12988
糊	-12989
絶	-12990
署	-12991
脏	-12992
腊	-12993
腾	-12994
與	-12995
藏	-12996
處	-12997
號	-12998
說	-12999
警	-13000
谷	-13001
財	-13002
費	-13003
赖	-13004
轴	-13005
轻	-13006
辨	-13007
進	-13008
遵	-13009
選	-13010
邻	-13011
针	-13012
铃	-13013
阶	-13014
階	-13015
驰	-13016
곱	-13017
귤	-13018
널	-13019
님	-13020
럽	-13021
롬	-13022
릅	-13023
밭	-13024
벽	-13025
뿌	-13026
커	-13027
튼	-13028
펴	-13029
	-13030
	-13031
	-13032
	-13033
	-13034
	-13035
🇯	-13036
🍩	-13037
🐟	-13038
🐢	-13039
👇	-13040
👽	-13041
💝	-13042
📍	-13043
🗡	-13044
🙈	-13045
🛌	-13046
🤌	-13047
🥤	-13048
Ê	-13049
ķ	-13050
ɨ	-13051
Ё	-13052
ড	-13053
ো	-13054
ச	-13055
ബ	-13056
ഭ	-13057
ൻ	-13058
ග	-13059
න	-13060
ල	-13061
හ	-13062
ි	-13063
ለ	-13064
ባ	-13065
ἰ	-13066
⎛	-13067
⎞	-13068
☺	-13069
♖	-13070
♜	-13071
⚫	-13072
へ	-13073
丝	-13074
久	-13075
互	-13076
亿	-13077
凝	-13078
删	-13079
剝	-13080
剪	-13081
命	-13082
咖	-13083
啡	-13084
善	-13085
埔	-13086
堂	-13087
嫁	-13088
宁	-13089
寨	-13090
封	-13091
尺	-13092
屏	-13093
弯	-13094
慮	-13095
披	-13096
拟	-13097
搭	-13098
束	-13099
林	-13100
柬	-13101
梅	-13102
條	-13103
汁	-13104
沟	-13105
況	-13106
漆	-13107
漫	-13108
灵	-13109
爬	-13110
爲	-13111
環	-13112
疫	-13113
皆	-13114
碎	-13115
磨	-13116
磷	-13117
祖	-13118
秉	-13119
突	-13120
窗	-13121
竹	-13122
筆	-13123
組	-13124
肌	-13125
舞	-13126
苦	-13127
茶	-13128
萨	-13129
蒙	-13130
虫	-13131
蝦	-13132
裂	-13133
該	-13134
谦	-13135
踢	-13136
轨	-13137
辅	-13138
迫	-13139
鄉	-13140
钟	-13141
雅	-13142
须	-13143
顿	-13144
겁	-13145
깨	-13146
꺼	-13147
돼	-13148
떠	-13149
봅	-13150
셜	-13151
쌍	-13152
젤	-13153
짐	-13154
짓	-13155
층	-13156
쾌	-13157
헬	-13158
흥	-13159
	-13160
🇳	-13161
🌙	-13162
🌼	-13163
🎅	-13164
🏡	-13165
👂	-13166
👓	-13167
💣	-13168
🔀	-13169
🔊	-13170
😛	-13171
😵	-13172
🛡	-13173
🤡	-13174
🥪	-13175
🧀	-13176
­	-13177
þ	-13178
Ğ	-13179
ű	-13180
Ž	-13181
ɢ	-13182
ʖ	-13183
͜	-13184
դ	-13185
ٔ	-13186
ঁ	-13187
ഓ	-13188
ഥ	-13189
ൃ	-13190
ු	-13191
ჭ	-13192
ሆ	-13193
ያ	-13194
Ꮇ	-13195
Ꮖ	-13196
Ꮮ	-13197
Ꮯ	-13198
ន	-13199
្	-13200
ᴍ	-13201
ṇ	-13202
ẫ	-13203
ὐ	-13204
‬	-13205
∅	-13206
⌨	-13207
⎝	-13208
⎠	-13209
⏩	-13210
┌	-13211
╠	-13212
╣	-13213
✌	-13214
❯	-13215
➥	-13216
⠈	-13217
⠙	-13218
⠛	-13219
⡇	-13220
⣽	-13221
九	-13222
乡	-13223
偿	-13224
処	-13225
効	-13226
君	-13227
呈	-13228
哺	-13229
嗅	-13230
嘛	-13231
坑	-13232
塑	-13233
壳	-13234
媚	-13235
學	-13236
审	-13237
履	-13238
州	-13239
廷	-13240
急	-13241
態	-13242
扑	-13243
损	-13244
擦	-13245
既	-13246
朝	-13247
档	-13248
漂	-13249
潤	-13250
灰	-13251
炭	-13252
爽	-13253
爾	-13254
牲	-13255
玛	-13256
發	-13257
皮	-13258
盖	-13259
盗	-13260
眠	-13261
祝	-13262
禁	-13263
秘	-13264
秩	-13265
穆	-13266
筑	-13267
籍	-13268
绩	-13269
综	-13270
缸	-13271
肪	-13272
胶	-13273
腔	-13274
茄	-13275
荣	-13276
覆	-13277
読	-13278
访	-13279
豹	-13280
赫	-13281
跑	-13282
較	-13283
辉	-13284
逐	-13285
逻	-13286
酵	-13287
钢	-13288
银	-13289
阅	-13290
阵	-13291
陰	-13292
鞋	-13293
顺	-13294
驻	-13295
ꜰ	-13296
갔	-13297
걱	-13298
균	-13299
긍	-13300
끊	-13301
눌	-13302
닙	-13303
뿐	-13304
섬	-13305
슈	-13306
얘	-13307
웃	-13308
캘	-13309
핀	-13310
𓎼	-13311
🇭	-13312
🍅	-13313
🍑	-13314
🐈	-13315
👫	-13316
💄	-13317
💌	-13318
💏	-13319
📷	-13320
🔏	-13321
🔔	-13322
🔞	-13323
🔢	-13324
🗝	-13325
🗽	-13326
😁	-13327
😥	-13328
🛩	-13329
🤴	-13330
🥓	-13331
🥲	-13332
🦊	-13333
🧞	-13334
Æ	-13335
ɐ	-13336
Ά	-13337
ј	-13338
ў	-13339
է	-13340
হ	-13341
ொ	-13342
చ	-13343
జ	-13344
ీ	-13345
ಠ	-13346
അ	-13347
ള	-13348
സ	-13349
฿	-13350
๑	-13351
ተ	-13352
ត	-13353
ា	-13354
ỡ	-13355
‪	-13356
⊥	-13357
┐	-13358
╤	-13359
▼	-13360
◡	-13361
☉	-13362
』	-13363
ゲ	-13364
ペ	-13365
乙	-13366
享	-13367
仰	-13368
係	-13369
冒	-13370
叠	-13371
吊	-13372
喻	-13373
埃	-13374
壺	-13375
嬉	-13376
嬢	-13377
宜	-13378
宮	-13379
將	-13380
尸	-13381
巡	-13382
巧	-13383
幕	-13384
床	-13385
張	-13386
志	-13387
怕	-13388
恢	-13389
患	-13390
惊	-13391
愿	-13392
払	-13393
択	-13394
抵	-13395
授	-13396
摸	-13397
晰	-13398
杯	-13399
桌	-13400
桶	-13401
梯	-13402
棉	-13403
楚	-13404
沉	-13405
泛	-13406
泻	-13407
湿	-13408
滚	-13409
牺	-13410
猎	-13411
甚	-13412
甲	-13413
當	-13414
疼	-13415
瘦	-13416
眼	-13417
矿	-13418
稿	-13419
範	-13420
绑	-13421
胜	-13422
膜	-13423
興	-13424
苑	-13425
蕃	-13426
薪	-13427
誰	-13428
謝	-13429
谱	-13430
贈	-13431
败	-13432
赌	-13433
赞	-13434
轿	-13435
违	-13436
逆	-13437
逊	-13438
锋	-13439
門	-13440
闪	-13441
鞭	-13442
饿	-13443
鬼	-13444
겟	-13445
곡	-13446
끔	-13447
끗	-13448
낸	-13449
농	-13450
뜨	-13451
띄	-13452
랍	-13453
렸	-13454
롭	-13455
륨	-13456
멋	-13457
샨	-13458
숨	-13459
씬	-13460
쩌	-13461
쯔	-13462
찜	-13463
착	-13464
쳐	-13465
촉	-13466
칠	-13467
캐	-13468
콤	-13469
콩	-13470
헤	-13471
혹	-13472
훅	-13473
훨	-13474
힘	-13475
🅰	-13476
🌹	-13477
🍞	-13478
🍰	-13479
🏀	-13480
🏎	-13481
👸	-13482
📎	-13483
🔜	-13484
😓	-13485
😝	-13486
🤢	-13487
🥈	-13488
Þ	-13489
ĝ	-13490
į	-13491
ň	-13492
ŋ	-13493
ɒ	-13494
ɜ	-13495
ɦ	-13496
Έ	-13497
Ή	-13498
Ξ	-13499
Ѕ	-13500
Ј	-13501
ա	-13502
չ	-13503
ٹ	-13504
ऊ	-13505
ऋ	-13506
ऎ	-13507
ऒ	-13508
ા	-13509
ஆ	-13510
ఈ	-13511
ే	-13512
ഇ	-13513
ഉ	-13514
ർ	-13515
ක	-13516
ර	-13517
ී	-13518
ේ	-13519
མ	-13520
ძ	-13521
Ꭺ	-13522
អ	-13523
ᴘ	-13524
ᴠ	-13525
ἁ	-13526
‖	-13527
↓	-13528
∝	-13529
⊙	-13530
┘	-13531
☕	-13532
☰	-13533
♗	-13534
♘	-13535
✋	-13536
✍	-13537
✥	-13538
❓	-13539
❕	-13540
➜	-13541
⠻	-13542
⣆	-13543
⣦	-13544
⣴	-13545
ⴰ	-13546
ぬ	-13547
ヤ	-13548
ヽ	-13549
严	-13550
仕	-13551
仿	-13552
佳	-13553
凡	-13554
凰	-13555
刑	-13556
刷	-13557
刹	-13558
剑	-13559
卑	-13560
卷	-13561
咲	-13562
咽	-13563
嗨	-13564
嗽	-13565
囲	-13566
坡	-13567
坦	-13568
妈	-13569
姻	-13570
宋	-13571
宏	-13572
宣	-13573
尋	-13574
尚	-13575
島	-13576
归	-13577
恩	-13578
惑	-13579
惠	-13580
慢	-13581
戦	-13582
拂	-13583
担	-13584
挽	-13585
措	-13586
撃	-13587
晶	-13588
末	-13589
柔	-13590
械	-13591
森	-13592
槇	-13593
樣	-13594
浓	-13595
涅	-13596
渴	-13597
湾	-13598
溜	-13599
炮	-13600
煎	-13601
盼	-13602
础	-13603
磅	-13604
粽	-13605
細	-13606
維	-13607
绒	-13608
绿	-13609
翠	-13610
耀	-13611
脆	-13612
脱	-13613
腳	-13614
腺	-13615
艺	-13616
苷	-13617
融	-13618
衡	-13619
複	-13620
览	-13621
讯	-13622
课	-13623
買	-13624
贵	-13625
赵	-13626
輪	-13627
迪	-13628
連	-13629
運	-13630
鉴	-13631
闲	-13632
靠	-13633
順	-13634
馃	-13635
骗	-13636
麗	-13637
굴	-13638
낀	-13639
냉	-13640
냥	-13641
넘	-13642
닭	-13643
똑	-13644
싸	-13645
왑	-13646
좁	-13647
죠	-13648
짧	-13649
찍	-13650
찬	-13651
츸	-13652
칼	-13653
캡	-13654
쿼	-13655
킵	-13656
탁	-13657
탕	-13658
펠	-13659
핑	-13660
	-13661
﷽	-13662
🇧	-13663
🇨	-13664
🇩	-13665
🌶	-13666
🍃	-13667
🍇	-13668
🍋	-13669
🍍	-13670
🎙	-13671
🎸	-13672
🏂	-13673
🐕	-13674
👎	-13675
📜	-13676
🔗	-13677
🕒	-13678
🕺	-13679
😰	-13680
🚪	-13681
🟦	-13682
🥂	-13683
🦁	-13684
🦋	-13685
🧖	-13686
🧝	-13687
🧿	-13688
🩗	-13689
🪛	-13690
ʔ	-13691
ˇ	-13692
˧	-13693
˩	-13694
Ћ	-13695
Ќ	-13696
ѓ	-13697
ћ	-13698
ѝ	-13699
Ґ	-13700
ի	-13701
ս	-13702
ֵ	-13703
؛	-13704
ړ	-13705
ः	-13706
ञ	-13707
ळ	-13708
ఎ	-13709
ഘ	-13710
ഞ	-13711
ഷ	-13712
േ	-13713
්	-13714
ฝ	-13715
ག	-13716
ས	-13717
ህ	-13718
ም	-13719
ረ	-13720
ቀ	-13721
ው	-13722
ጣ	-13723
់	-13724
ṓ	-13725
ṭ	-13726
∄	-13727
☆	-13728
☠	-13729
⚡	-13730
❣	-13731
〖	-13732
〗	-13733
ぐ	-13734
ぜ	-13735
ぞ	-13736
づ	-13737
ギ	-13738
丈	-13739
亭	-13740
仇	-13741
仏	-13742
伯	-13743
俱	-13744
倦	-13745
備	-13746
催	-13747
傻	-13748
億	-13749
兼	-13750
凌	-13751
凯	-13752
划	-13753
券	-13754
刺	-13755
副	-13756
劫	-13757
勤	-13758
匈	-13759
厚	-13760
叛	-13761
咳	-13762
喂	-13763
嗣	-13764
坠	-13765
壁	-13766
夹	-13767
契	-13768
奪	-13769
娱	-13770
婦	-13771
孕	-13772
孙	-13773
孟	-13774
寒	-13775
寺	-13776
寿	-13777
專	-13778
嵌	-13779
帳	-13780
幸	-13781
幻	-13782
底	-13783
弗	-13784
忆	-13785
怒	-13786
悦	-13787
悩	-13788
慶	-13789
戯	-13790
扣	-13791
押	-13792
拒	-13793
拿	-13794
挺	-13795
掌	-13796
揭	-13797
揽	-13798
摄	-13799
攒	-13800
斗	-13801
旦	-13802
旧	-13803
昼	-13804
曼	-13805
棕	-13806
歡	-13807
殊	-13808
毁	-13809
毎	-13810
泡	-13811
浮	-13812
湖	-13813
潮	-13814
焦	-13815
營	-13816
爪	-13817
狐	-13818
猪	-13819
献	-13820
琴	-13821
盾	-13822
祭	-13823
租	-13824
稍	-13825
笨	-13826
绘	-13827
缠	-13828
罚	-13829
翼	-13830
肺	-13831
胎	-13832
膚	-13833
若	-13834
荡	-13835
莱	-13836
葉	-13837
虎	-13838
訊	-13839
診	-13840
詞	-13841
調	-13842
诈	-13843
诊	-13844
豆	-13845
贸	-13846
赋	-13847
跨	-13848
載	-13849
轮	-13850
辣	-13851
込	-13852
递	-13853
遍	-13854
遝	-13855
遥	-13856
邀	-13857
鄙	-13858
鈥	-13859
附	-13860
雖	-13861
離	-13862
雷	-13863
静	-13864
革	-13865
飘	-13866
養	-13867
駝	-13868
냐	-13869
놀	-13870
닌	-13871
돕	-13872
듭	-13873
랭	-13874
멸	-13875
몫	-13876
뭘	-13877
밤	-13878
빌	-13879
쁘	-13880
삽	-13881
쉬	-13882
쌓	-13883
앉	-13884
앤	-13885
옆	-13886
옴	-13887
첩	-13888
탑	-13889
팔	-13890
	-13891
🌏	-13892
🌩	-13893
🌭	-13894
🍨	-13895
🍫	-13896
🍭	-13897
🎧	-13898
🏳	-13899
🐍	-13900
🐳	-13901
👅	-13902
👚	-13903
👜	-13904
👤	-13905
👿	-13906
💢	-13907
📌	-13908
🔈	-13909
🔩	-13910
🔹	-13911
🕵	-13912
🖐	-13913
🗓	-13914
😪	-13915
😶	-13916
🚿	-13917
🛥	-13918
🧦	-13919
	-13920
Ï	-13921
Û	-13922
ħ	-13923
Ł	-13924
ũ	-13925
ǝ	-13926
ǰ	-13927
ˌ	-13928
̊	-13929
Ζ	-13930
ո	-13931
։	-13932
ঘ	-13933
চ	-13934
০	-13935
১	-13936
২	-13937
৭	-13938
ં	-13939
સ	-13940
ஃ	-13941
ఉ	-13942
ధ	-13943
ව	-13944
ස	-13945
ා	-13946
ො	-13947
།	-13948
ད	-13949
Ⴎ	-13950
პ	-13951
ᅩ	-13952
በ	-13953
ኑ	-13954
ን	-13955
ደ	-13956
ጨ	-13957
Ꮋ	-13958
Ꮍ	-13959
Ꮤ	-13960
Ꮲ	-13961
Ꮶ	-13962
ᕋ	-13963
គ	-13964
ង	-13965
េ	-13966
ᴋ	-13967
ṃ	-13968
ṅ	-13969
ṣ	-13970
ỳ	-13971
ἢ	-13972
―	-13973
‡	-13974
⃑	-13975
⇐	-13976
⇔	-13977
∼	-13978
⎡	-13979
⎦	-13980
⏤	-13981
❥	-13982
➢	-13983
⟨	-13984
⠂	-13985
⠇	-13986
⠑	-13987
⠟	-13988
⠸	-13989
⡈	-13990
⡴	-13991
⢤	-13992
⢻	-13993
⣄	-13994
⣮	-13995
⣼	-13996
⬆	-13997
⬇	-13998
⻨	-13999
ぱ	-14000
临	-14001
乏	-14002
仍	-14003
伊	-14004
休	-14005
众	-14006
伟	-14007
佩	-14008
価	-14009
侧	-14010
促	-14011
俺	-14012
傳	-14013
傷	-14014
僕	-14015
兄	-14016
兒	-14017
兹	-14018
军	-14019
剧	-14020
劣	-14021
勃	-14022
勒	-14023
勘	-14024
勢	-14025
匆	-14026
却	-14027
县	-14028
収	-14029
叩	-14030
吐	-14031
呃	-14032
呵	-14033
唱	-14034
喝	-14035
嘗	-14036
嘲	-14037
噢	-14038
圧	-14039
墙	-14040
墨	-14041
壮	-14042
夫	-14043
妓	-14044
委	-14045
婉	-14046
婷	-14047
孔	-14048
寫	-14049
尝	-14050
尤	-14051
帐	-14052
帕	-14053
庭	-14054
徽	-14055
忍	-14056
忖	-14057
忠	-14058
恨	-14059
悲	-14060
愤	-14061
戊	-14062
扬	-14063
扰	-14064
拖	-14065
拜	-14066
挪	-14067
掺	-14068
損	-14069
携	-14070
摇	-14071
撞	-14072
撰	-14073
擁	-14074
據	-14075
敞	-14076
敢	-14077
斤	-14078
昆	-14079
暮	-14080
朱	-14081
朵	-14082
杰	-14083
栋	-14084
榄	-14085
樹	-14086
橄	-14087
欣	-14088
氨	-14089
汰	-14090
沃	-14091
洁	-14092
洪	-14093
浄	-14094
浏	-14095
浴	-14096
浸	-14097
淳	-14098
準	-14099
溶	-14100
滞	-14101
潜	-14102
潺	-14103
澡	-14104
濃	-14105
灯	-14106
灶	-14107
炼	-14108
烈	-14109
牵	-14110
狸	-14111
獸	-14112
玉	-14113
甜	-14114
產	-14115
異	-14116
瘤	-14117
盛	-14118
盤	-14119
瞻	-14120
碍	-14121
稱	-14122
稲	-14123
窓	-14124
笔	-14125
筝	-14126
箇	-14127
粘	-14128
糯	-14129
級	-14130
絡	-14131
緊	-14132
縮	-14133
繼	-14134
續	-14135
纬	-14136
绕	-14137
聪	-14138
職	-14139
胁	-14140
腐	-14141
膏	-14142
膣	-14143
芯	-14144
莉	-14145
蒸	-14146
蜂	-14147
蝶	-14148
袖	-14149
裝	-14150
裳	-14151
視	-14152
評	-14153
詩	-14154
誤	-14155
議	-14156
護	-14157
變	-14158
诱	-14159
豐	-14160
貌	-14161
赏	-14162
赢	-14163
赤	-14164
轩	-14165
辞	-14166
迁	-14167
還	-14168
酬	-14169
酶	-14170
釈	-14171
錢	-14172
钮	-14173
锂	-14174
険	-14175
隔	-14176
雕	-14177
零	-14178
霞	-14179
靶	-14180
預	-14181
顶	-14182
颌	-14183
骤	-14184
髓	-14185
魂	-14186
鳴	-14187
곤	-14188
깝	-14189
깰	-14190
낯	-14191
넌	-14192
녹	-14193
닐	-14194
떡	-14195
뛰	-14196
릉	-14197
맡	-14198
멘	-14199
벡	-14200
샌	-14201
쇠	-14202
숲	-14203
썰	-14204
쓸	-14205
씁	-14206
엉	-14207
욕	-14208
잖	-14209
첨	-14210
춤	-14211
컬	-14212
퀀	-14213
톱	-14214
튜	-14215
폐	-14216
풀	-14217
핸	-14218
횟	-14219
흘	-14220
	-14221
🌋	-14222
🍌	-14223
🎺	-14224
🏔	-14225
🏗	-14226
🏘	-14227
🏚	-14228
🏟	-14229
🏺	-14230
🐇	-14231
🐙	-14232
🐲	-14233
👄	-14234
👠	-14235
👮	-14236
👺	-14237
💘	-14238
📉	-14239
📕	-14240
🔌	-14241
🖼	-14242
😇	-14243
🙁	-14244
🙋	-14245
🚤	-14246
🚬	-14247
🛢	-14248
🛹	-14249
🟒	-14250
🤫	-14251
🤬	-14252
🤵	-14253
🥐	-14254
🥞	-14255
🥦	-14256
🦄	-14257
🦯	-14258
🧓	-14259
🧩	-14260
🧳	-14261
🪐	-14262
Ĝ	-14263
ļ	-14264
Œ	-14265
Ź	-14266
ǽ	-14267
ɭ	-14268
ɻ	-14269
̌	-14270
Ք	-14271
ռ	-14272
ր	-14273
ֲ	-14274
ׂ	-14275
ય	-14276
શ	-14277
્	-14278
ஏ	-14279
హ	-14280
എ	-14281
ധ	-14282
ഫ	-14283
൴	-14284
ං	-14285
ඉ	-14286
ඩ	-14287
ළ	-14288
ན	-14289
ར	-14290
ི	-14291
ུ	-14292
࿹	-14293
ᄋ	-14294
ᅲ	-14295
ሃ	-14296
ሄ	-14297
ሩ	-14298
ር	-14299
ስ	-14300
እ	-14301
ወ	-14302
ይ	-14303
ጃ	-14304
ᔤ	-14305
ᖆ	-14306
រ	-14307
ល	-14308
ុ	-14309
៉	-14310
ὰ	-14311
⁂	-14312
↔	-14313
⊂	-14314
╭	-14315
╮	-14316
▽	-14317
☂	-14318
♔	-14319
♕	-14320
⚆	-14321
⚈	-14322
⚽	-14323
✴	-14324
⟶	-14325
⦁	-14326
ぇ	-14327
ぼ	-14328
ユ	-14329
ヨ	-14330
両	-14331
乎	-14332
乗	-14333
仙	-14334
伦	-14335
伴	-14336
伽	-14337
倉	-14338
借	-14339
债	-14340
偶	-14341
價	-14342
党	-14343
兟	-14344
冀	-14345
冬	-14346
努	-14347
募	-14348
卓	-14349
厉	-14350
厘	-14351
呕	-14352
咋	-14353
咪	-14354
單	-14355
図	-14356
園	-14357
埉	-14358
執	-14359
堡	-14360
塊	-14361
売	-14362
奈	-14363
奏	-14364
妇	-14365
妹	-14366
姆	-14367
娜	-14368
媒	-14369
尅	-14370
導	-14371
尘	-14372
届	-14373
崎	-14374
川	-14375
帘	-14376
帧	-14377
延	-14378
復	-14379
怪	-14380
悬	-14381
惩	-14382
愁	-14383
懒	-14384
戴	-14385
扇	-14386
拡	-14387
挂	-14388
捷	-14389
掘	-14390
掩	-14391
握	-14392
撤	-14393
擇	-14394
攜	-14395
敌	-14396
斐	-14397
昂	-14398
昧	-14399
暧	-14400
札	-14401
枢	-14402
枯	-14403
梁	-14404
梭	-14405
椅	-14406
榛	-14407
榜	-14408
槍	-14409
残	-14410
汭	-14411
泊	-14412
泵	-14413
洋	-14414
淡	-14415
渋	-14416
湯	-14417
溪	-14418
滋	-14419
炎	-14420
煮	-14421
燈	-14422
燥	-14423
牧	-14424
犬	-14425
狀	-14426
獨	-14427
珍	-14428
畜	-14429
痴	-14430
监	-14431
盪	-14432
硕	-14433
碱	-14434
禄	-14435
窄	-14436
篮	-14437
粗	-14438
純	-14439
紹	-14440
綜	-14441
編	-14442
繫	-14443
纽	-14444
罩	-14445
羅	-14446
羽	-14447
聘	-14448
聯	-14449
肿	-14450
胀	-14451
脉	-14452
脖	-14453
脳	-14454
膝	-14455
膽	-14456
臂	-14457
船	-14458
艾	-14459
茅	-14460
茵	-14461
莊	-14462
萌	-14463
葱	-14464
蕉	-14465
薄	-14466
蛙	-14467
螺	-14468
衍	-14469
補	-14470
製	-14471
覧	-14472
親	-14473
観	-14474
觀	-14475
誘	-14476
談	-14477
講	-14478
诸	-14479
谬	-14480
貫	-14481
賽	-14482
贺	-14483
踏	-14484
辰	-14485
迟	-14486
逝	-14487
週	-14488
邮	-14489
郑	-14490
釋	-14491
銹	-14492
鋼	-14493
錯	-14494
鏡	-14495
铭	-14496
铺	-14497
锐	-14498
锻	-14499
闊	-14500
闵	-14501
院	-14502
隆	-14503
際	-14504
隧	-14505
霧	-14506
項	-14507
頑	-14508
顽	-14509
飲	-14510
饱	-14511
馈	-14512
験	-14513
驯	-14514
驳	-14515
驼	-14516
骆	-14517
骑	-14518
髭	-14519
鳄	-14520
鳥	-14521
麻	-14522
黃	-14523
黎	-14524
黒	-14525
黮	-14526
鼻	-14527
齿	-14528
龙	-14529
골	-14530
깅	-14531
깐	-14532
깔	-14533
꾼	-14534
늑	-14535
듣	-14536
딕	-14537
땅	-14538
랙	-14539
랩	-14540
롯	-14541
몸	-14542
묘	-14543
묻	-14544
밝	-14545
쁜	-14546
섯	-14547
셰	-14548
쇼	-14549
얇	-14550
엑	-14551
엽	-14552
왼	-14553
윈	-14554
줌	-14555
찐	-14556
촌	-14557
춰	-14558
텀	-14559
	-14560
	-14561
	-14562
￾	-14563
𓎽	-14564
🍁	-14565
🍓	-14566
🍛	-14567
🍻	-14568
🍿	-14569
🏇	-14570
🏈	-14571
🏌	-14572
🏦	-14573
🏭	-14574
🏾	-14575
🐊	-14576
🐋	-14577
🐎	-14578
🐒	-14579
🐔	-14580
🐜	-14581
🐧	-14582
🐨	-14583
🐫	-14584
👆	-14585
👟	-14586
👯	-14587
💐	-14588
💵	-14589
📖	-14590
📯	-14591
🔵	-14592
🕊	-14593
🗴	-14594
😩	-14595
🚘	-14596
🚢	-14597
🚰	-14598
🛰	-14599
🥑	-14600
🥚	-14601
🧜	-14602
🧪	-14603
🧵	-14604
Ì	-14605
ď	-14606
Ī	-14607
ţ	-14608
Ƶ	-14609
Ȳ	-14610
ɣ	-14611
ɵ	-14612
ʁ	-14613
ʂ	-14614
̑	-14615
̪	-14616
ԃ	-14617
Ի	-14618
շ	-14619
֍	-14620
ڪ	-14621
ڵ	-14622
۱	-14623
ॐ	-14624
ঙ	-14625
ূ	-14626
ડ	-14627
પ	-14628
મ	-14629
ર	-14630
લ	-14631
ુ	-14632
ે	-14633
అ	-14634
ణ	-14635
బ	-14636
ష	-14637
ಓ	-14638
ವ	-14639
ಶ	-14640
ಷ	-14641
ಹ	-14642
ೆ	-14643
ශ	-14644
ැ	-14645
ฤ	-14646
๐	-14647
ང	-14648
འ	-14649
ལ	-14650
ེ	-14651
ྟ	-14652
ჟ	-14653
ᅳ	-14654
ሁ	-14655
ማ	-14656
ቭ	-14657
ች	-14658
ነ	-14659
ዉ	-14660
ዎ	-14661
ድ	-14662
ጀ	-14663
ገ	-14664
ጥ	-14665
Ꮩ	-14666
Ᏼ	-14667
ក	-14668
ច	-14669
ជ	-14670
ព	-14671
វ	-14672
ស	-14673
ហ	-14674
ិ	-14675
ី	-14676
ូ	-14677
ៃ	-14678
ᴊ	-14679
ᴥ	-14680
ṁ	-14681
ẋ	-14682
ỷ	-14683
ἄ	-14684
ἑ	-14685
ὴ	-14686
ῇ	-14687
ῦ	-14688
‫	-14689
‿	-14690
⁞	-14691
⁦	-14692
₽	-14693
∏	-14694
∖	-14695
≪	-14696
⋄	-14697
⌧	-14698
⏳	-14699
▲	-14700
◔	-14701
☁	-14702
☄	-14703
♪	-14704
⚖	-14705
➕	-14706
⠃	-14707
⠔	-14708
⠭	-14709
⠲	-14710
⠴	-14711
⠹	-14712
⠾	-14713
⡄	-14714
⡞	-14715
⡟	-14716
⡹	-14717
⡻	-14718
⡾	-14719
⢂	-14720
⢄	-14721
⢚	-14722
⢦	-14723
⢴	-14724
⢸	-14725
⢹	-14726
⣁	-14727
⣈	-14728
⣌	-14729
⣗	-14730
⣜	-14731
⣠	-14732
⣥	-14733
⣭	-14734
⣹	-14735
〜	-14736
ぺ	-14737
ゅ	-14738
ゴ	-14739
ヒ	-14740
丧	-14741
乃	-14742
乞	-14743
伏	-14744
伸	-14745
佛	-14746
佣	-14747
侯	-14748
俾	-14749
倣	-14750
倫	-14751
傾	-14752
僵	-14753
児	-14754
兔	-14755
兽	-14756
凹	-14757
凿	-14758
削	-14759
剔	-14760
劑	-14761
劲	-14762
勉	-14763
勝	-14764
匀	-14765
卖	-14766
卜	-14767
卵	-14768
吨	-14769
哭	-14770
唤	-14771
啄	-14772
啤	-14773
喇	-14774
喵	-14775
嗓	-14776
嘻	-14777
嘿	-14778
囉	-14779
圈	-14780
圍	-14781
圓	-14782
圣	-14783
堆	-14784
塌	-14785
塞	-14786
増	-14787
壊	-14788
壯	-14789
奋	-14790
姉	-14791
嫌	-14792
宗	-14793
宫	-14794
宴	-14795
専	-14796
屈	-14797
屉	-14798
屑	-14799
屿	-14800
岩	-14801
峦	-14802
巢	-14803
巨	-14804
帰	-14805
幅	-14806
庆	-14807
弥	-14808
彎	-14809
徒	-14810
御	-14811
怀	-14812
怠	-14813
怡	-14814
怨	-14815
恒	-14816
悚	-14817
愛	-14818
慎	-14819
戒	-14820
戰	-14821
戻	-14822
扱	-14823
抄	-14824
拐	-14825
拔	-14826
拮	-14827
挙	-14828
挡	-14829
挤	-14830
掛	-14831
援	-14832
摂	-14833
摧	-14834
旋	-14835
旨	-14836
旬	-14837
旷	-14838
晕	-14839
晖	-14840
暂	-14841
暦	-14842
曰	-14843
曾	-14844
朗	-14845
杀	-14846
杆	-14847
村	-14848
杜	-14849
枝	-14850
柳	-14851
棒	-14852
棚	-14853
棠	-14854
楠	-14855
樱	-14856
橘	-14857
橡	-14858
櫛	-14859
權	-14860
殖	-14861
毕	-14862
汐	-14863
泉	-14864
泥	-14865
泽	-14866
津	-14867
派	-14868
涌	-14869
涛	-14870
涯	-14871
涵	-14872
淄	-14873
淫	-14874
淹	-14875
減	-14876
渲	-14877
滑	-14878
潁	-14879
瀑	-14880
灸	-14881
炫	-14882
烁	-14883
烦	-14884
烯	-14885
熱	-14886
爵	-14887
犹	-14888
猜	-14889
獲	-14890
瑜	-14891
産	-14892
甸	-14893
畅	-14894
畏	-14895
痪	-14896
瘫	-14897
療	-14898
皿	-14899
盈	-14900
盎	-14901
盐	-14902
監	-14903
眂	-14904
県	-14905
眺	-14906
睛	-14907
瞅	-14908
瞰	-14909
砍	-14910
硫	-14911
碰	-14912
禾	-14913
秦	-14914
秽	-14915
竭	-14916
筋	-14917
箭	-14918
篩	-14919
糞	-14920
給	-14921
絵	-14922
練	-14923
纖	-14924
纤	-14925
纱	-14926
纲	-14927
纷	-14928
纸	-14929
绣	-14930
绳	-14931
绵	-14932
绽	-14933
翩	-14934
耍	-14935
聋	-14936
肚	-14937
肤	-14938
肴	-14939
肾	-14940
胆	-14941
腦	-14942
腫	-14943
膨	-14944
臀	-14945
臓	-14946
舎	-14947
艳	-14948
芒	-14949
芥	-14950
芽	-14951
莫	-14952
莲	-14953
菇	-14954
菲	-14955
蓄	-14956
蔬	-14957
蕾	-14958
蘑	-14959
蜗	-14960
蝲	-14961
蝴	-14962
衝	-14963
袭	-14964
裸	-14965
裹	-14966
規	-14967
訂	-14968
訓	-14969
誌	-14970
誓	-14971
課	-14972
讀	-14973
讽	-14974
诺	-14975
谋	-14976
谨	-14977
豫	-14978
貴	-14979
贬	-14980
贴	-14981
趴	-14982
践	-14983
軸	-14984
輩	-14985
輯	-14986
輸	-14987
轉	-14988
辐	-14989
辩	-14990
辱	-14991
迅	-14992
迴	-14993
逛	-14994
遁	-14995
邊	-14996
邏	-14997
郁	-14998
郡	-14999
酚	-15000
醉	-15001
醋	-15002
醨	-15003
醫	-15004
鈴	-15005
銭	-15006
銷	-15007
録	-15008
钙	-15009
钾	-15010
铜	-15011
铯	-15012
锁	-15013
锡	-15014
閉	-15015
閞	-15016
閤	-15017
闹	-15018
阁	-15019
阑	-15020
險	-15021
雁	-15022
雑	-15023
靈	-15024
靜	-15025
靴	-15026
韵	-15027
須	-15028
額	-15029
顧	-15030
顾	-15031
饲	-15032
驚	-15033
鬧	-15034
鲸	-15035
鸦	-15036
鸽	-15037
鹜	-15038
鹰	-15039
黱	-15040
黶	-15041
齐	-15042
ꝼ	-15043
Ᵹ	-15044
Ꝿ	-15045
갑	-15046
겅	-15047
겼	-15048
괴	-15049
굽	-15050
깊	-15051
꼈	-15052
꽃	-15053
뀌	-15054
납	-15055
넥	-15056
놓	-15057
뇌	-15058
늙	-15059
댓	-15060
딨	-15061
떼	-15062
뜰	-15063
랐	-15064
럭	-15065
렴	-15066
룩	-15067
룰	-15068
믿	-15069
쁩	-15070
샅	-15071
쇄	-15072
슐	-15073
얹	-15074
엄	-15075
옛	-15076
웅	-15077
잭	-15078
쫓	-15079
촬	-15080
쿨	-15081
큐	-15082
탈	-15083
텔	-15084
퇴	-15085
팓	-15086
핍	-15087
핹	-15088
헴	-15089
혀	-15090
흙	-15091
힙	-15092
	-15093
	-15094
	-15095
	-15096
	-15097
	-15098
🆔	-15099
🇦	-15100
🌑	-15101
🌝	-15102
🌷	-15103
🍀	-15104
🍏	-15105
🍐	-15106
🍡	-15107
🍦	-15108
🎃	-15109
🎢	-15110
🎣	-15111
🎩	-15112
🏪	-15113
🏯	-15114
🐘	-15115
🐪	-15116
🐯	-15117
🐸	-15118
🐻	-15119
🐿	-15120
👐	-15121
👖	-15122
👬	-15123
👭	-15124
💂	-15125
💇	-15126
💍	-15127
💟	-15128
📄	-15129
📅	-15130
📤	-15131
📥	-15132
📹	-15133
🔁	-15134
🕷	-15135
🕸	-15136
🕹	-15137
🖋	-15138
😧	-15139
🙎	-15140
🚁	-15141
🚌	-15142
🚲	-15143
🛑	-15144
🟢	-15145
🤏	-15146
🤐	-15147
🤛	-15148
🤜	-15149
🤧	-15150
🤳	-15151
🤸	-15152
🥀	-15153
🥇	-15154
🥛	-15155
🥣	-15156
🥭	-15157
🥮	-15158
🦜	-15159
🦥	-15160
🧛	-15161
🧥	-15162
🧨	-15163
🧯	-15164
🧾	-15165
🪅	-15166
🪩	-15167
🫖	-15168
Ë	-15169
Ā	-15170
Ď	-15171
ŕ	-15172
Ŧ	-15173
ŭ	-15174
ŷ	-15175
Ż	-15176
ƀ	-15177
ȩ	-15178
ɫ	-15179
ʇ	-15180
ʠ	-15181
ʼ	-15182
̀	-15183
̆	-15184
̲	-15185
Ό	-15186
ϋ	-15187
Ђ	-15188
Ї	-15189
њ	-15190
ґ	-15191
ҷ	-15192
ө	-15193
ԅ	-15194
Ջ	-15195
ը	-15196
հ	-15197
յ	-15198
պ	-15199
վ	-15200
ք	-15201
ٺ	-15202
ٿ	-15203
ڑ	-15204
ۅ	-15205
ۆ	-15206
۳	-15207
۸	-15208
ܐ	-15209
ܷ	-15210
ݜ	-15211
ߒ	-15212
ߪ	-15213
ङ	-15214
ঝ	-15215
ঞ	-15216
ঠ	-15217
঺	-15218
આ	-15219
ક	-15220
ખ	-15221
ગ	-15222
છ	-15223
ણ	-15224
ત	-15225
થ	-15226
દ	-15227
બ	-15228
ભ	-15229
વ	-15230
ી	-15231
ૂ	-15232
ો	-15233
ூ	-15234
ெ	-15235
ఒ	-15236
ఖ	-15237
ఘ	-15238
ఙ	-15239
ఛ	-15240
ఝ	-15241
ఞ	-15242
ఠ	-15243
ఢ	-15244
ూ	-15245
ొ	-15246
ಖ	-15247
ಗ	-15248
ಙ	-15249
ಚ	-15250
ಛ	-15251
ಜ	-15252
ಝ	-15253
ಞ	-15254
ಟ	-15255
ಡ	-15256
ಢ	-15257
ಾ	-15258
ೀ	-15259
ഈ	-15260
ഐ	-15261
ഡ	-15262
ණ	-15263
බ	-15264
ම	-15265
ฏ	-15266
๔	-15267
๕	-15268
๖	-15269
๗	-15270
๘	-15271
๙	-15272
ະ	-15273
ཁ	-15274
ཅ	-15275
ཆ	-15276
ཇ	-15277
ཐ	-15278
པ	-15279
ཕ	-15280
ཝ	-15281
ཤ	-15282
ཨ	-15283
ོ	-15284
ྀ	-15285
ྱ	-15286
ྲ	-15287
ྷ	-15288
ᄆ	-15289
ᄔ	-15290
ᄕ	-15291
ᅠ	-15292
ᅡ	-15293
ᅣ	-15294
ᅥ	-15295
ᅧ	-15296
ᅭ	-15297
ᅮ	-15298
ᅰ	-15299
ᅱ	-15300
ᅴ	-15301
ᅵ	-15302
ᇇ	-15303
ᇈ	-15304
ᇟ	-15305
ሓ	-15306
ሙ	-15307
ሣ	-15308
ሪ	-15309
ሰ	-15310
ብ	-15311
ት	-15312
ኛ	-15313
፣	-15314
ᓚ	-15315
ᗢ	-15316
ᘏ	-15317
ខ	-15318
ញ	-15319
ដ	-15320
ណ	-15321
ថ	-15322
ទ	-15323
ប	-15324
ម	-15325
យ	-15326
ើ	-15327
ែ	-15328
ៅ	-15329
ំ	-15330
ះ	-15331
៎	-15332
ḍ	-15333
ḓ	-15334
Ḥ	-15335
ṙ	-15336
ὅ	-15337
ὖ	-15338
ὦ	-15339
ᾶ	-15340
ῖ	-15341
ῶ	-15342
ῷ	-15343
‛	-15344
‹	-15345
⁃	-15346
⁏	-15347
₿	-15348
↪	-15349
↳	-15350
∎	-15351
⋁	-15352
⋐	-15353
⋑	-15354
⌘	-15355
⍳	-15356
⎕	-15357
⎜	-15358
⎟	-15359
⎣	-15360
⎤	-15361
⎥	-15362
⏏	-15363
⏱	-15364
⏹	-15365
╯	-15366
▎	-15367
◀	-15368
◎	-15369
☎	-15370
☤	-15371
♠	-15372
♡	-15373
♭	-15374
♯	-15375
⚓	-15376
⚪	-15377
⚰	-15378
⛵	-15379
⛽	-15380
✊	-15381
✏	-15382
✡	-15383
❀	-15384
❃	-15385
➔	-15386
⠋	-15387
⠼	-15388
⥽	-15389
⩠	-15390
⫟	-15391
〒	-15392
ゼ	-15393
ヌ	-15394
ヘ	-15395
ヴ	-15396
丁	-15397
丙	-15398
丛	-15399
丢	-15400
丸	-15401
亦	-15402
亲	-15403
仓	-15404
仔	-15405
仮	-15406
仲	-15407
伐	-15408
佢	-15409
佬	-15410
侮	-15411
俯	-15412
傅	-15413
傦	-15414
債	-15415
償	-15416
儲	-15417
冊	-15418
农	-15419
凳	-15420
則	-15421
剤	-15422
劍	-15423
勋	-15424
勧	-15425
勺	-15426
匠	-15427
匿	-15428
卉	-15429
協	-15430
卧	-15431
厕	-15432
叉	-15433
叙	-15434
召	-15435
吴	-15436
吵	-15437
吻	-15438
呂	-15439
咒	-15440
咫	-15441
哎	-15442
哑	-15443
哼	-15444
唯	-15445
啕	-15446
啦	-15447
啸	-15448
喉	-15449
営	-15450
嗪	-15451
嘉	-15452
噁	-15453
噪	-15454
嚎	-15455
坛	-15456
堕	-15457
塗	-15458
塘	-15459
墻	-15460
壓	-15461
壤	-15462
壶	-15463
夺	-15464
妙	-15465
妳	-15466
姚	-15467
姜	-15468
娑	-15469
婀	-15470
婆	-15471
宾	-15472
寐	-15473
寝	-15474
寡	-15475
寢	-15476
寤	-15477
寧	-15478
寮	-15479
寰	-15480
層	-15481
峡	-15482
崩	-15483
巩	-15484
巳	-15485
帅	-15486
帜	-15487
席	-15488
帶	-15489
幌	-15490
幼	-15491
幽	-15492
庫	-15493
庵	-15494
弁	-15495
弃	-15496
弊	-15497
弓	-15498
弦	-15499
彭	-15500
彷	-15501
彻	-15502
彿	-15503
徐	-15504
從	-15505
徵	-15506
忧	-15507
悠	-15508
惜	-15509
惟	-15510
惧	-15511
惬	-15512
愈	-15513
慑	-15514
慣	-15515
慰	-15516
憾	-15517
懷	-15518
戈	-15519
戎	-15520
戚	-15521
戸	-15522
扎	-15523
抬	-15524
拌	-15525
拓	-15526
拦	-15527
挖	-15528
挣	-15529
挥	-15530
挫	-15531
捐	-15532
捕	-15533
捡	-15534
捨	-15535
採	-15536
掲	-15537
掾	-15538
搅	-15539
搾	-15540
摆	-15541
摊	-15542
撮	-15543
擅	-15544
救	-15545
敷	-15546
斥	-15547
旁	-15548
旗	-15549
晋	-15550
曜	-15551
朴	-15552
杭	-15553
枋	-15554
枪	-15555
柑	-15556
栈	-15557
栓	-15558
桜	-15559
桨	-15560
梧	-15561
梳	-15562
梵	-15563
棍	-15564
椒	-15565
椭	-15566
楂	-15567
榮	-15568
槽	-15569
権	-15570
檛	-15571
欠	-15572
歐	-15573
歴	-15574
歵	-15575
毀	-15576
毯	-15577
氏	-15578
氖	-15579
氦	-15580
氩	-15581
氯	-15582
汗	-15583
汝	-15584
沁	-15585
沮	-15586
泄	-15587
泌	-15588
泣	-15589
泪	-15590
洵	-15591
洽	-15592
浇	-15593
涂	-15594
涣	-15595
淀	-15596
淇	-15597
淋	-15598
淘	-15599
淣	-15600
渚	-15601
溃	-15602
溅	-15603
溢	-15604
滅	-15605
滴	-15606
滿	-15607
漁	-15608
漢	-15609
漸	-15610
潘	-15611
澈	-15612
澳	-15613
灿	-15614
炉	-15615
烂	-15616
烘	-15617
焕	-15618
焙	-15619
熊	-15620
熔	-15621
燭	-15622
爺	-15623
牢	-15624
狂	-15625
狩	-15626
猶	-15627
獄	-15628
玄	-15629
玲	-15630
瑕	-15631
瓜	-15632
甫	-15633
町	-15634
疱	-15635
疹	-15636
瘾	-15637
皱	-15638
盟	-15639
盲	-15640
眩	-15641
眸	-15642
督	-15643
瞬	-15644
矢	-15645
矮	-15646
砖	-15647
硝	-15648
碌	-15649
碑	-15650
碗	-15651
碧	-15652
碼	-15653
磚	-15654
礦	-15655
禅	-15656
禹	-15657
窃	-15658
竜	-15659
競	-15660
笼	-15661
筛	-15662
節	-15663
紀	-15664
紅	-15665
紙	-15666
紝	-15667
経	-15668
絮	-15669
総	-15670
縫	-15671
纪	-15672
缚	-15673
罐	-15674
翅	-15675
耕	-15676
耸	-15677
聖	-15678
聹	-15679
聽	-15680
肖	-15681
肘	-15682
肯	-15683
肽	-15684
胍	-15685
胚	-15686
胴	-15687
脅	-15688
脸	-15689
腻	-15690
膀	-15691
膳	-15692
臉	-15693
臟	-15694
舆	-15695
艘	-15696
芳	-15697
苓	-15698
苔	-15699
茂	-15700
莓	-15701
菠	-15702
萝	-15703
蒂	-15704
蕴	-15705
薰	-15706
藍	-15707
藓	-15708
虹	-15709
虽	-15710
蛛	-15711
蜡	-15712
蟻	-15713
衆	-15714
衔	-15715
袍	-15716
袜	-15717
裡	-15718
褲	-15719
覺	-15720
討	-15721
訖	-15722
許	-15723
訴	-15724
詫	-15725
誇	-15726
誠	-15727
諾	-15728
謂	-15729
譁	-15730
證	-15731
譽	-15732
讚	-15733
诅	-15734
谈	-15735
谓	-15736
谣	-15737
豊	-15738
豚	-15739
貓	-15740
販	-15741
貼	-15742
賀	-15743
賺	-15744
贡	-15745
贯	-15746
贷	-15747
贾	-15748
贿	-15749
赎	-15750
赚	-15751
跡	-15752
踪	-15753
躁	-15754
躍	-15755
躲	-15756
輕	-15757
轄	-15758
轼	-15759
辙	-15760
辦	-15761
辭	-15762
辺	-15763
迭	-15764
逃	-15765
逗	-15766
逮	-15767
遅	-15768
遮	-15769
遺	-15770
邪	-15771
郊	-15772
酋	-15773
酮	-15774
酯	-15775
酱	-15776
酷	-15777
醇	-15778
釘	-15779
釣	-15780
鈣	-15781
銅	-15782
銆	-15783
銛	-15784
鋑	-15785
錄	-15786
錦	-15787
錽	-15788
鍵	-15789
鐵	-15790
钠	-15791
钰	-15792
钽	-15793
铝	-15794
锄	-15795
锤	-15796
锥	-15797
锶	-15798
镶	-15799
閎	-15800
閱	-15801
闻	-15802
阐	-15803
阴	-15804
陆	-15805
陈	-15806
陥	-15807
陷	-15808
難	-15809
雰	-15810
震	-15811
鞠	-15812
韒	-15813
領	-15814
颈	-15815
颗	-15816
飓	-15817
飯	-15818
餌	-15819
餚	-15820
館	-15821
饥	-15822
駄	-15823
驭	-15824
骂	-15825
骚	-15826
髇	-15827
髪	-15828
魅	-15829
鲨	-15830
鸣	-15831
鸯	-15832
鸳	-15833
默	-15834
黛	-15835
鼎	-15836
齋	-15837
龟	-15838
괄	-15839
긋	-15840
꼭	-15841
꾀	-15842
끄	-15843
낌	-15844
낙	-15845
낫	-15846
눕	-15847
뉘	-15848
닫	-15849
덕	-15850
덧	-15851
됌	-15852
됨	-15853
됬	-15854
둥	-15855
뒷	-15856
땠	-15857
럴	-15858
렀	-15859
렉	-15860
룬	-15861
뤄	-15862
륙	-15863
맹	-15864
맺	-15865
멜	-15866
묵	-15867
묶	-15868
뮌	-15869
밵	-15870
볍	-15871
붓	-15872
뷰	-15873
빕	-15874
뺀	-15875
뽑	-15876
삭	-15877
싱	-15878
쌈	-15879
쏟	-15880
쓴	-15881
엣	-15882
웁	-15883
웠	-15884
읍	-15885
잃	-15886
잉	-15887
잊	-15888
잔	-15889
잤	-15890
졸	-15891
줭	-15892
찔	-15893
챙	-15894
쳤	-15895
춘	-15896
캄	-15897
턱	-15898
틱	-15899
펜	-15900
핫	-15901
햇	-15902
혔	-15903
홀	-15904
훼	-15905
흉	-15906
흔	-15907
흠	-15908
흰	-15909
	-15910
	-15911
	-15912
	-15913
	-15914
︎	-15915
￿	-15916
𓀉	-15917
𓁿	-15918
𓋹	-15919
𓏏	-15920
🇲	-15921
🌇	-15922
🌉	-15923
🌕	-15924
🌚	-15925
🌢	-15926
🌥	-15927
🌨	-15928
🌵	-15929
🍂	-15930
🍒	-15931
🍖	-15932
🍘	-15933
🍚	-15934
🍶	-15935
🍸	-15936
🍾	-15937
🎀	-15938
🎆	-15939
🎇	-15940
🎟	-15941
🎲	-15942
🏅	-15943
🏒	-15944
🏜	-15945
🏥	-15946
🏨	-15947
🏬	-15948
🐌	-15949
🐭	-15950
🐹	-15951
🐼	-15952
👃	-15953
👡	-15954
👰	-15955
💳	-15956
💺	-15957
📆	-15958
📘	-15959
📦	-15960
📻	-15961
🔭	-15962
🕅	-15963
🕙	-15964
🕳	-15965
🖌	-15966
🖒	-15967
🖿	-15968
🚊	-15969
🚏	-15970
🚑	-15971
🚓	-15972
🚔	-15973
🚜	-15974
🚦	-15975
🚮	-15976
🚯	-15977
🚴	-15978
🚽	-15979
🛇	-15980
🛏	-15981
🟠	-15982
🟣	-15983
🤒	-15984
🤟	-15985
🤥	-15986
🤰	-15987
🤱	-15988
🤺	-15989
🥃	-15990
🥉	-15991
🥒	-15992
🥔	-15993
🥴	-15994
🦃	-15995
